{
  "version": "1.0",
  "truncation": null,
  "padding": null,
  "added_tokens": [
    {
      "id": 0,
      "content": "[UNK]",
      "single_word": false,
      "lstrip": false,
      "rstrip": false,
      "normalized": false,
      "special": true
    },
    {
      "id": 1,
      "content": "[PAD]",
      "single_word": false,
      "lstrip": false,
      "rstrip": false,
      "normalized": false,
      "special": true
    },
    {
      "id": 2,
      "content": "[CLS]",
      "single_word": false,
      "lstrip": false,
      "rstrip": false,
      "normalized": false,
      "special": true
    },
    {
      "id": 3,
      "content": "[SEP]",
      "single_word": false,
      "lstrip": false,
      "rstrip": false,
      "normalized": false,
      "special": true
    },
    {
      "id": 4,
      "content": "[MASK]",
      "single_word": false,
      "lstrip": false,
      "rstrip": false,
      "normalized": false,
      "special": true
    }
  ],
  "normalizer": null,
  "pre_tokenizer": {
    "type": "Whitespace"
  },
  "post_processor": null,
  "decoder": null,
  "model": {
    "type": "BPE",
    "dropout": null,
    "unk_token": "[UNK]",
    "continuing_subword_prefix": null,
    "end_of_word_suffix": null,
    "fuse_unk": false,
    "byte_fallback": false,
    "ignore_merges": false,
    "vocab": {
      "[UNK]": 0,
      "[PAD]": 1,
      "[CLS]": 2,
      "[SEP]": 3,
      "[MASK]": 4,
      "!": 5,
      "\"": 6,
      "#": 7,
      "$": 8,
      "%": 9,
      "&": 10,
      "'": 11,
      "(": 12,
      ")": 13,
      "+": 14,
      ",": 15,
      "-": 16,
      ".": 17,
      "/": 18,
      "0": 19,
      "1": 20,
      "2": 21,
      "3": 22,
      "4": 23,
      "5": 24,
      "6": 25,
      "7": 26,
      "8": 27,
      "9": 28,
      ":": 29,
      ";": 30,
      "<": 31,
      ">": 32,
      "?": 33,
      "A": 34,
      "B": 35,
      "C": 36,
      "D": 37,
      "E": 38,
      "F": 39,
      "G": 40,
      "H": 41,
      "I": 42,
      "J": 43,
      "K": 44,
      "L": 45,
      "M": 46,
      "N": 47,
      "O": 48,
      "P": 49,
      "Q": 50,
      "R": 51,
      "S": 52,
      "T": 53,
      "U": 54,
      "V": 55,
      "W": 56,
      "X": 57,
      "Y": 58,
      "Z": 59,
      "_": 60,
      "a": 61,
      "b": 62,
      "c": 63,
      "d": 64,
      "e": 65,
      "f": 66,
      "g": 67,
      "h": 68,
      "i": 69,
      "j": 70,
      "k": 71,
      "l": 72,
      "m": 73,
      "n": 74,
      "o": 75,
      "p": 76,
      "q": 77,
      "r": 78,
      "s": 79,
      "t": 80,
      "u": 81,
      "v": 82,
      "w": 83,
      "x": 84,
      "y": 85,
      "z": 86,
      "à": 87,
      "é": 88,
      "ö": 89,
      "‐": 90,
      "–": 91,
      "—": 92,
      "‘": 93,
      "’": 94,
      "“": 95,
      "”": 96,
      "…": 97,
      "₂": 98,
      "😅": 99,
      "in": 100,
      "th": 101,
      "re": 102,
      "at": 103,
      "me": 104,
      "the": 105,
      "st": 106,
      "on": 107,
      "er": 108,
      "an": 109,
      "or": 110,
      "ou": 111,
      "to": 112,
      "ing": 113,
      "al": 114,
      "ar": 115,
      "se": 116,
      "en": 117,
      "ow": 118,
      "le": 119,
      "it": 120,
      "ch": 121,
      "ic": 122,
      "is": 123,
      "es": 124,
      "lo": 125,
      "for": 126,
      "of": 127,
      "la": 128,
      "ra": 129,
      "ti": 130,
      "ro": 131,
      "ate": 132,
      "up": 133,
      "ind": 134,
      "li": 135,
      "ge": 136,
      "de": 137,
      "ve": 138,
      "you": 139,
      "wh": 140,
      "sh": 141,
      "ke": 142,
      "be": 143,
      "ll": 144,
      "ck": 145,
      "un": 146,
      "te": 147,
      "ma": 148,
      "ig": 149,
      "ion": 150,
      "oo": 151,
      "ut": 152,
      "vi": 153,
      "do": 154,
      "out": 155,
      "ce": 156,
      "art": 157,
      "lay": 158,
      "ur": 159,
      "my": 160,
      "this": 161,
      "nt": 162,
      "how": 163,
      "ap": 164,
      "wi": 165,
      "mo": 166,
      "mind": 167,
      "op": 168,
      "ome": 169,
      "ay": 170,
      "play": 171,
      "ab": 172,
      "and": 173,
      "remind": 174,
      "ne": 175,
      "what": 176,
      "clo": 177,
      "ation": 178,
      "sc": 179,
      "nd": 180,
      "ss": 181,
      "ad": 182,
      "tra": 183,
      "ht": 184,
      "with": 185,
      "us": 186,
      "set": 187,
      "ver": 188,
      "close": 189,
      "sy": 190,
      "int": 191,
      "il": 192,
      "all": 193,
      "no": 194,
      "co": 195,
      "ri": 196,
      "pa": 197,
      "ste": 198,
      "po": 199,
      "some": 200,
      "am": 201,
      "fe": 202,
      "ct": 203,
      "we": 204,
      "pro": 205,
      "che": 206,
      "wor": 207,
      "arch": 208,
      "ine": 209,
      "time": 210,
      "he": 211,
      "that": 212,
      "cre": 213,
      "day": 214,
      "ust": 215,
      "ill": 216,
      "start": 217,
      "ment": 218,
      "app": 219,
      "syste": 220,
      "system": 221,
      "et": 222,
      "ex": 223,
      "get": 224,
      "fa": 225,
      "now": 226,
      "ter": 227,
      "can": 228,
      "log": 229,
      "ive": 230,
      "lea": 231,
      "tion": 232,
      "ly": 233,
      "con": 234,
      "search": 235,
      "ant": 236,
      "du": 237,
      "ener": 238,
      "list": 239,
      "as": 240,
      "fo": 241,
      "ld": 242,
      "vide": 243,
      "qu": 244,
      "ity": 245,
      "show": 246,
      "ent": 247,
      "ima": 248,
      "thing": 249,
      "ight": 250,
      "video": 251,
      "are": 252,
      "des": 253,
      "fi": 254,
      "pe": 255,
      "ube": 256,
      "about": 257,
      "own": 258,
      "You": 259,
      "su": 260,
      "image": 261,
      "ok": 262,
      "YouT": 263,
      "di": 264,
      "down": 265,
      "YouTube": 266,
      "dra": 267,
      "boo": 268,
      "ign": 269,
      "work": 270,
      "find": 271,
      "end": 272,
      "create": 273,
      "bo": 274,
      "ca": 275,
      "line": 276,
      "lease": 277,
      "ial": 278,
      "off": 279,
      "check": 280,
      "enerate": 281,
      "ir": 282,
      "mp": 283,
      "make": 284,
      "vie": 285,
      "ha": 286,
      "ers": 287,
      "when": 288,
      "br": 289,
      "look": 290,
      "shut": 291,
      "ph": 292,
      "ed": 293,
      "mus": 294,
      "ul": 295,
      "music": 296,
      "el": 297,
      "top": 298,
      "gle": 299,
      "rom": 300,
      "ert": 301,
      "tre": 302,
      "ba": 303,
      "ist": 304,
      "ound": 305,
      "open": 306,
      "ice": 307,
      "tell": 308,
      "age": 309,
      "ure": 310,
      "one": 311,
      "ong": 312,
      "videos": 313,
      "tif": 314,
      "cur": 315,
      "from": 316,
      "mor": 317,
      "pl": 318,
      "please": 319,
      "reminder": 320,
      "ght": 321,
      "ide": 322,
      "like": 323,
      "cle": 324,
      "man": 325,
      "ning": 326,
      "dis": 327,
      "give": 328,
      "our": 329,
      "ac": 330,
      "generate": 331,
      "new": 332,
      "ces": 333,
      "late": 334,
      "wind": 335,
      "ard": 336,
      "wat": 337,
      "Wh": 338,
      "gu": 339,
      "oogle": 340,
      "track": 341,
      "view": 342,
      "ake": 343,
      "ip": 344,
      "utor": 345,
      "tutor": 346,
      "ital": 347,
      "able": 348,
      "tutorial": 349,
      "live": 350,
      "ket": 351,
      "ga": 352,
      "upd": 353,
      "draw": 354,
      "ies": 355,
      "ite": 356,
      "call": 357,
      "min": 358,
      "ssion": 359,
      "dig": 360,
      "por": 361,
      "alert": 362,
      "ick": 363,
      "gra": 364,
      "rop": 365,
      "notif": 366,
      "digital": 367,
      "mi": 368,
      "urn": 369,
      "go": 370,
      "song": 371,
      "tiv": 372,
      "light": 373,
      "ustr": 374,
      "fore": 375,
      "session": 376,
      "its": 377,
      "unch": 378,
      "window": 379,
      "ting": 380,
      "ount": 381,
      "today": 382,
      "design": 383,
      "Play": 384,
      "best": 385,
      "paint": 386,
      "bu": 387,
      "cu": 388,
      "im": 389,
      "ry": 390,
      "playlist": 391,
      "ever": 392,
      "your": 393,
      "back": 394,
      "ep": 395,
      "real": 396,
      "illustr": 397,
      "latest": 398,
      "let": 399,
      "per": 400,
      "sound": 401,
      "something": 402,
      "vel": 403,
      "ood": 404,
      "king": 405,
      "ps": 406,
      "cast": 407,
      "sa": 408,
      "stre": 409,
      "der": 410,
      "ance": 411,
      "ical": 412,
      "boot": 413,
      "water": 414,
      "rent": 415,
      "mode": 416,
      "ain": 417,
      "pop": 418,
      "ser": 419,
      "by": 420,
      "ft": 421,
      "pre": 422,
      "produ": 423,
      "google": 424,
      "ene": 425,
      "trend": 426,
      "ue": 427,
      "alk": 428,
      "dy": 429,
      "mar": 430,
      "pi": 431,
      "ther": 432,
      "book": 433,
      "ower": 434,
      "inter": 435,
      "au": 436,
      "drop": 437,
      "over": 438,
      "ran": 439,
      "row": 440,
      "run": 441,
      "ould": 442,
      "beat": 443,
      "post": 444,
      "tutorials": 445,
      "ol": 446,
      "turn": 447,
      "spe": 448,
      "ics": 449,
      "scre": 450,
      "current": 451,
      "ber": 452,
      "night": 453,
      "ak": 454,
      "ating": 455,
      "ence": 456,
      "screen": 457,
      "AI": 458,
      "into": 459,
      "scene": 460,
      "Nis": 461,
      "car": 462,
      "ev": 463,
      "fun": 464,
      "Nisha": 465,
      "cla": 466,
      "ek": 467,
      "mon": 468,
      "ull": 469,
      "rec": 470,
      "ess": 471,
      "Can": 472,
      "ds": 473,
      "gh": 474,
      "power": 475,
      "yo": 476,
      "zz": 477,
      "ication": 478,
      "week": 479,
      "clean": 480,
      "What": 481,
      "notify": 482,
      "10": 483,
      "city": 484,
      "land": 485,
      "ping": 486,
      "class": 487,
      "fut": 488,
      "ms": 489,
      "sk": 490,
      "way": 491,
      "xt": 492,
      "stor": 493,
      "exit": 494,
      "20": 495,
      "bre": 496,
      "ding": 497,
      "hits": 498,
      "if": 499,
      "low": 500,
      "spa": 501,
      "les": 502,
      "why": 503,
      "tech": 504,
      "sun": 505,
      "chan": 506,
      "fire": 507,
      "ink": 508,
      "rap": 509,
      "mail": 510,
      "port": 511,
      "every": 512,
      "cy": 513,
      "cli": 514,
      "ger": 515,
      "sur": 516,
      "inn": 517,
      "setting": 518,
      "cont": 519,
      "right": 520,
      "launch": 521,
      "travel": 522,
      "istic": 523,
      "update": 524,
      "af": 525,
      "dit": 526,
      "any": 527,
      "ape": 528,
      "trending": 529,
      "ful": 530,
      "ore": 531,
      "sm": 532,
      "itch": 533,
      "com": 534,
      "comp": 535,
      "illustrate": 536,
      "coo": 537,
      "rou": 538,
      "vis": 539,
      "review": 540,
      "ature": 541,
      "ketch": 542,
      "mix": 543,
      "202": 544,
      "just": 545,
      "uristic": 546,
      "rip": 547,
      "futuristic": 548,
      "ring": 549,
      "um": 550,
      "vice": 551,
      "ze": 552,
      "rain": 553,
      "feel": 554,
      "news": 555,
      "after": 556,
      "2025": 557,
      "cl": 558,
      "dre": 559,
      "ele": 560,
      "yle": 561,
      "ates": 562,
      "docu": 563,
      "note": 564,
      "painting": 565,
      "document": 566,
      "cal": 567,
      "ff": 568,
      "home": 569,
      "know": 570,
      "take": 571,
      "ual": 572,
      "stu": 573,
      "ish": 574,
      "under": 575,
      "igh": 576,
      "need": 577,
      "chedu": 578,
      "cess": 579,
      "PM": 580,
      "blog": 581,
      "ction": 582,
      "mount": 583,
      "sketch": 584,
      "chill": 585,
      "tips": 586,
      "workout": 587,
      "asy": 588,
      "est": 589,
      "ho": 590,
      "high": 591,
      "om": 592,
      "rite": 593,
      "so": 594,
      "schedu": 595,
      "str": 596,
      "style": 597,
      "arm": 598,
      "rock": 599,
      "unk": 600,
      "head": 601,
      "hu": 602,
      "side": 603,
      "tun": 604,
      "forget": 605,
      "point": 606,
      "morning": 607,
      "tracks": 608,
      "ather": 609,
      "na": 610,
      "pic": 611,
      "read": 612,
      "restart": 613,
      "scape": 614,
      "dio": 615,
      "bot": 616,
      "shutdown": 617,
      "gram": 618,
      "ja": 619,
      "pla": 620,
      "resu": 621,
      "ted": 622,
      "songs": 623,
      "schedule": 624,
      "talk": 625,
      "think": 626,
      "stop": 627,
      "send": 628,
      "raft": 629,
      "before": 630,
      "ook": 631,
      "artic": 632,
      "weather": 633,
      "tunes": 634,
      "cat": 635,
      "dcast": 636,
      "put": 637,
      "ta": 638,
      "stat": 639,
      "load": 640,
      "last": 641,
      "vir": 642,
      "podcast": 643,
      "eting": 644,
      "game": 645,
      "updates": 646,
      "settings": 647,
      "mountain": 648,
      "ness": 649,
      "pr": 650,
      "rest": 651,
      "online": 652,
      "ening": 653,
      "lear": 654,
      "beg": 655,
      "plan": 656,
      "beats": 657,
      "elect": 658,
      "jazz": 659,
      "Bring": 660,
      "Cre": 661,
      "Se": 662,
      "St": 663,
      "air": 664,
      "count": 665,
      "gy": 666,
      "ren": 667,
      "rend": 668,
      "ouse": 669,
      "tomor": 670,
      "col": 671,
      "logo": 672,
      "disable": 673,
      "stream": 674,
      "Create": 675,
      "render": 676,
      "tomorrow": 677,
      "ear": 678,
      "fly": 679,
      "fant": 680,
      "gr": 681,
      "gon": 682,
      "ie": 683,
      "punk": 684,
      "sing": 685,
      "vor": 686,
      "val": 687,
      "would": 688,
      "ines": 689,
      "medit": 690,
      "robot": 691,
      "ations": 692,
      "hel": 693,
      "face": 694,
      "dia": 695,
      "dragon": 696,
      "lights": 697,
      "forest": 698,
      "break": 699,
      "space": 700,
      "rough": 701,
      "beginn": 702,
      "electr": 703,
      "Search": 704,
      "fantasy": 705,
      "Re": 706,
      "but": 707,
      "come": 708,
      "da": 709,
      "email": 710,
      "fre": 711,
      "nu": 712,
      "tr": 713,
      "tab": 714,
      "ving": 715,
      "through": 716,
      "reboot": 717,
      "ort": 718,
      "alarm": 719,
      "does": 720,
      "next": 721,
      "change": 722,
      "article": 723,
      "bi": 724,
      "dri": 725,
      "flo": 726,
      "mat": 727,
      "ton": 728,
      "ware": 729,
      "witch": 730,
      "leep": 731,
      "lock": 732,
      "artwork": 733,
      "trait": 734,
      "termin": 735,
      "bring": 736,
      "portrait": 737,
      "hi": 738,
      "kill": 739,
      "pt": 740,
      "pan": 741,
      "vo": 742,
      "want": 743,
      "ary": 744,
      "ses": 745,
      "temp": 746,
      "movie": 747,
      "motiv": 748,
      "ational": 749,
      "world": 750,
      "fact": 751,
      "favor": 752,
      "graph": 753,
      "content": 754,
      "Generate": 755,
      "Google": 756,
      "act": 757,
      "je": 758,
      "jo": 759,
      "lan": 760,
      "ling": 761,
      "sleep": 762,
      "meeting": 763,
      "dom": 764,
      "board": 765,
      "plant": 766,
      "notification": 767,
      "illustration": 768,
      "dream": 769,
      "resume": 770,
      "bat": 771,
      "hip": 772,
      "red": 773,
      "enable": 774,
      "program": 775,
      "mental": 776,
      "apps": 777,
      "sub": 778,
      "status": 779,
      "floating": 780,
      "Show": 781,
      "ctiv": 782,
      "dge": 783,
      "dance": 784,
      "fin": 785,
      "mu": 786,
      "part": 787,
      "sp": 788,
      "yth": 789,
      "net": 790,
      "sci": 791,
      "without": 792,
      "pho": 793,
      "classic": 794,
      "favorite": 795,
      "Find": 796,
      "ace": 797,
      "cap": 798,
      "fl": 799,
      "fri": 800,
      "gard": 801,
      "house": 802,
      "ark": 803,
      "mag": 804,
      "mach": 805,
      "more": 806,
      "motion": 807,
      "have": 808,
      "sky": 809,
      "story": 810,
      "flying": 811,
      "Make": 812,
      "bl": 813,
      "ize": 814,
      "pick": 815,
      "pull": 816,
      "rit": 817,
      "wrap": 818,
      "sent": 819,
      "itor": 820,
      "oft": 821,
      "vers": 822,
      "ild": 823,
      "ily": 824,
      "cooking": 825,
      "study": 826,
      "beginners": 827,
      "Fi": 828,
      "Let": 829,
      "id": 830,
      "ny": 831,
      "tran": 832,
      "walk": 833,
      "there": 834,
      "stand": 835,
      "alth": 836,
      "iss": 837,
      "device": 838,
      "llow": 839,
      "cks": 840,
      "not": 841,
      "peace": 842,
      "sure": 843,
      "display": 844,
      "watch": 845,
      "produce": 846,
      "audio": 847,
      "everything": 848,
      "Start": 849,
      "ach": 850,
      "bust": 851,
      "good": 852,
      "mber": 853,
      "switch": 854,
      "soft": 855,
      "ture": 856,
      "wa": 857,
      "inst": 858,
      "member": 859,
      "anim": 860,
      "ous": 861,
      "aries": 862,
      "form": 863,
      "life": 864,
      "short": 865,
      "uring": 866,
      "user": 867,
      "ally": 868,
      "health": 869,
      "ask": 870,
      "que": 871,
      "clear": 872,
      "pie": 873,
      "interface": 874,
      "landscape": 875,
      "lowing": 876,
      "ground": 877,
      "plants": 878,
      "machine": 879,
      "AM": 880,
      "Look": 881,
      "ble": 882,
      "lat": 883,
      "ts": 884,
      "use": 885,
      "made": 886,
      "igger": 887,
      "vibe": 888,
      "closing": 889,
      "word": 890,
      "sum": 891,
      "activ": 892,
      "guide": 893,
      "market": 894,
      "smart": 895,
      "panel": 896,
      "ject": 897,
      "photo": 898,
      "friend": 899,
      "Des": 900,
      "bal": 901,
      "gro": 902,
      "sign": 903,
      "ug": 904,
      "ons": 905,
      "ory": 906,
      "chat": 907,
      "char": 908,
      "gest": 909,
      "who": 910,
      "appoint": 911,
      "sounds": 912,
      "yoga": 913,
      "visual": 914,
      "documentaries": 915,
      "plain": 916,
      "meditation": 917,
      "terminate": 918,
      "appointment": 919,
      "Give": 920,
      "In": 921,
      "Write": 922,
      "ass": 923,
      "ban": 924,
      "glowing": 925,
      "hist": 926,
      "hour": 927,
      "lication": 928,
      "mood": 929,
      "miss": 930,
      "pen": 931,
      "say": 932,
      "reg": 933,
      "remember": 934,
      "room": 935,
      "indie": 936,
      "ship": 937,
      "utes": 938,
      "intro": 939,
      "here": 940,
      "application": 941,
      "quo": 942,
      "box": 943,
      "Who": 944,
      "minutes": 945,
      "ways": 946,
      "reviews": 947,
      "ription": 948,
      "human": 949,
      "learning": 950,
      "tonight": 951,
      "motivational": 952,
      "garden": 953,
      "peaceful": 954,
      "bustling": 955,
      "Lo": 956,
      "brain": 957,
      "ci": 958,
      "emotion": 959,
      "fil": 960,
      "hit": 961,
      "ien": 962,
      "sou": 963,
      "tch": 964,
      "task": 965,
      "vint": 966,
      "tool": 967,
      "iti": 968,
      "lap": 969,
      "tive": 970,
      "ated": 971,
      "nost": 972,
      "rise": 973,
      "page": 974,
      "step": 975,
      "feren": 976,
      "hear": 977,
      "explain": 978,
      "logs": 979,
      "files": 980,
      "phone": 981,
      "ideas": 982,
      "save": 983,
      "evening": 984,
      "sunset": 985,
      "surreal": 986,
      "clou": 987,
      "picture": 988,
      "langu": 989,
      "network": 990,
      "Design": 991,
      "soul": 992,
      "vintage": 993,
      "cof": 994,
      "cial": 995,
      "oll": 996,
      "pers": 997,
      "writ": 998,
      "inte": 999,
      "rela": 1000,
      "remo": 1001,
      "rene": 1002,
      "mean": 1003,
      "memor": 1004,
      "star": 1005,
      "onic": 1006,
      "serene": 1007,
      "less": 1008,
      "shop": 1009,
      "scan": 1010,
      "trail": 1011,
      "fee": 1012,
      "hey": 1013,
      "quick": 1014,
      "desc": 1015,
      "brand": 1016,
      "background": 1017,
      "random": 1018,
      "poster": 1019,
      "monitor": 1020,
      "party": 1021,
      "coffee": 1022,
      "relax": 1023,
      "Put": 1024,
      "dry": 1025,
      "gre": 1026,
      "ges": 1027,
      "old": 1028,
      "ror": 1029,
      "ush": 1030,
      "wo": 1031,
      "zy": 1032,
      "thou": 1033,
      "stic": 1034,
      "ano": 1035,
      "lection": 1036,
      "ices": 1037,
      "whe": 1038,
      "text": 1039,
      "most": 1040,
      "pose": 1041,
      "process": 1042,
      "duce": 1043,
      "drawing": 1044,
      "going": 1045,
      "street": 1046,
      "books": 1047,
      "highlights": 1048,
      "heads": 1049,
      "batter": 1050,
      "ctivity": 1051,
      "activate": 1052,
      "language": 1053,
      "thought": 1054,
      "OS": 1055,
      "Turn": 1056,
      "cor": 1057,
      "ech": 1058,
      "fli": 1059,
      "full": 1060,
      "ich": 1061,
      "rout": 1062,
      "write": 1063,
      "res": 1064,
      "oun": 1065,
      "als": 1066,
      "alien": 1067,
      "forman": 1068,
      "upbeat": 1069,
      "train": 1070,
      "syn": 1071,
      "startup": 1072,
      "ments": 1073,
      "performan": 1074,
      "productivity": 1075,
      "funny": 1076,
      "weekend": 1077,
      "stru": 1078,
      "comedy": 1079,
      "piece": 1080,
      "quote": 1081,
      "Load": 1082,
      "itiate": 1083,
      "Pro": 1084,
      "bir": 1085,
      "cer": 1086,
      "cra": 1087,
      "dget": 1088,
      "done": 1089,
      "ell": 1090,
      "gam": 1091,
      "tle": 1092,
      "twe": 1093,
      "ves": 1094,
      "report": 1095,
      "oustic": 1096,
      "always": 1097,
      "ract": 1098,
      "vib": 1099,
      "vibr": 1100,
      "outside": 1101,
      "will": 1102,
      "web": 1103,
      "fast": 1104,
      "ular": 1105,
      "acoustic": 1106,
      "got": 1107,
      "product": 1108,
      "running": 1109,
      "spaces": 1110,
      "cyber": 1111,
      "country": 1112,
      "help": 1113,
      "daily": 1114,
      "nudge": 1115,
      "software": 1116,
      "person": 1117,
      "battery": 1118,
      "gaming": 1119,
      "Open": 1120,
      "Please": 1121,
      "Stre": 1122,
      "ager": 1123,
      "cry": 1124,
      "craft": 1125,
      "dr": 1126,
      "date": 1127,
      "kes": 1128,
      "lines": 1129,
      "war": 1130,
      "was": 1131,
      "inv": 1132,
      "anthe": 1133,
      "too": 1134,
      "sel": 1135,
      "enti": 1136,
      "led": 1137,
      "itar": 1138,
      "chall": 1139,
      "ded": 1140,
      "shion": 1141,
      "test": 1142,
      "moon": 1143,
      "player": 1144,
      "promp": 1145,
      "fashion": 1146,
      "leave": 1147,
      "istant": 1148,
      "manager": 1149,
      "ipes": 1150,
      "mid": 1151,
      "build": 1152,
      "speech": 1153,
      "event": 1154,
      "recent": 1155,
      "recipes": 1156,
      "diag": 1157,
      "electronic": 1158,
      "assistant": 1159,
      "vibrant": 1160,
      "spaceship": 1161,
      "Stream": 1162,
      "challen": 1163,
      "Roll": 1164,
      "cus": 1165,
      "during": 1166,
      "fla": 1167,
      "fig": 1168,
      "hop": 1169,
      "ival": 1170,
      "long": 1171,
      "sn": 1172,
      "sup": 1173,
      "sil": 1174,
      "tal": 1175,
      "tic": 1176,
      "ump": 1177,
      "than": 1178,
      "ree": 1179,
      "mer": 1180,
      "medi": 1181,
      "erature": 1182,
      "love": 1183,
      "cept": 1184,
      "very": 1185,
      "coding": 1186,
      "pack": 1187,
      "project": 1188,
      "phon": 1189,
      "guitar": 1190,
      "impro": 1191,
      "safe": 1192,
      "popular": 1193,
      "clips": 1194,
      "comput": 1195,
      "electric": 1196,
      "fresh": 1197,
      "temperature": 1198,
      "ython": 1199,
      "sentence": 1200,
      "install": 1201,
      "queue": 1202,
      "later": 1203,
      "saved": 1204,
      "memory": 1205,
      "where": 1206,
      "vibes": 1207,
      "anthems": 1208,
      "self": 1209,
      "30": 1210,
      "Fri": 1211,
      "Spo": 1212,
      "bas": 1213,
      "care": 1214,
      "ging": 1215,
      "hor": 1216,
      "jam": 1217,
      "lit": 1218,
      "lla": 1219,
      "mit": 1220,
      "ock": 1221,
      "pet": 1222,
      "ty": 1223,
      "ins": 1224,
      "instru": 1225,
      "three": 1226,
      "ret": 1227,
      "ative": 1228,
      "see": 1229,
      "level": 1230,
      "iction": 1231,
      "ions": 1232,
      "vies": 1233,
      "movies": 1234,
      "ople": 1235,
      "score": 1236,
      "trading": 1237,
      "noon": 1238,
      "fect": 1239,
      "energy": 1240,
      "follow": 1241,
      "fir": 1242,
      "people": 1243,
      "makeup": 1244,
      "tree": 1245,
      "tify": 1246,
      "peri": 1247,
      "service": 1248,
      "piano": 1249,
      "olu": 1250,
      "cool": 1251,
      "viral": 1252,
      "free": 1253,
      "voice": 1254,
      "graphy": 1255,
      "prompt": 1256,
      "diagnost": 1257,
      "Friday": 1258,
      "Spotify": 1259,
      "Cue": 1260,
      "Draft": 1261,
      "av": 1262,
      "ast": 1263,
      "bla": 1264,
      "cut": 1265,
      "dark": 1266,
      "happ": 1267,
      "ky": 1268,
      "kick": 1269,
      "lunch": 1270,
      "mic": 1271,
      "par": 1272,
      "pap": 1273,
      "rh": 1274,
      "ten": 1275,
      "wake": 1276,
      "initiate": 1277,
      "renew": 1278,
      "med": 1279,
      "mes": 1280,
      "dest": 1281,
      "team": 1282,
      "oot": 1283,
      "outline": 1284,
      "playing": 1285,
      "plug": 1286,
      "idea": 1287,
      "disk": 1288,
      "Which": 1289,
      "buy": 1290,
      "trends": 1291,
      "speed": 1292,
      "inner": 1293,
      "restore": 1294,
      "caption": 1295,
      "Fire": 1296,
      "summar": 1297,
      "trailers": 1298,
      "cyberpunk": 1299,
      "diagnostics": 1300,
      "Python": 1301,
      "Sh": 1302,
      "Wi": 1303,
      "aut": 1304,
      "bit": 1305,
      "cing": 1306,
      "dd": 1307,
      "nal": 1308,
      "os": 1309,
      "pay": 1310,
      "pract": 1311,
      "ute": 1312,
      "wall": 1313,
      "thday": 1314,
      "ref": 1315,
      "ero": 1316,
      "laun": 1317,
      "roll": 1318,
      "road": 1319,
      "libr": 1320,
      "deep": 1321,
      "ked": 1322,
      "keep": 1323,
      "beach": 1324,
      "dog": 1325,
      "myst": 1326,
      "mom": 1327,
      "nel": 1328,
      "cozy": 1329,
      "feature": 1330,
      "weir": 1331,
      "experi": 1332,
      "fake": 1333,
      "conc": 1334,
      "concept": 1335,
      "fold": 1336,
      "quil": 1337,
      "desert": 1338,
      "brow": 1339,
      "phra": 1340,
      "ult": 1341,
      "backup": 1342,
      "castle": 1343,
      "series": 1344,
      "auto": 1345,
      "month": 1346,
      "compil": 1347,
      "underwater": 1348,
      "mountains": 1349,
      "collection": 1350,
      "trigger": 1351,
      "matic": 1352,
      "magical": 1353,
      "tranquil": 1354,
      "grocer": 1355,
      "laptop": 1356,
      "ference": 1357,
      "relaxing": 1358,
      "birthday": 1359,
      "personal": 1360,
      "phones": 1361,
      "improve": 1362,
      "instrumental": 1363,
      "laundry": 1364,
      "Tell": 1365,
      "aga": 1366,
      "away": 1367,
      "cas": 1368,
      "dat": 1369,
      "dinner": 1370,
      "flight": 1371,
      "fiction": 1372,
      "hand": 1373,
      "oce": 1374,
      "sust": 1375,
      "wan": 1376,
      "throw": 1377,
      "reset": 1378,
      "station": 1379,
      "stock": 1380,
      "choo": 1381,
      "rol": 1382,
      "depic": 1383,
      "should": 1384,
      "cel": 1385,
      "near": 1386,
      "steam": 1387,
      "ambi": 1388,
      "feed": 1389,
      "config": 1390,
      "draft": 1391,
      "came": 1392,
      "bright": 1393,
      "action": 1394,
      "cute": 1395,
      "soundtrack": 1396,
      "stretch": 1397,
      "serv": 1398,
      "press": 1399,
      "sunrise": 1400,
      "ports": 1401,
      "client": 1402,
      "control": 1403,
      "smoo": 1404,
      "planet": 1405,
      "finish": 1406,
      "writing": 1407,
      "routines": 1408,
      "synth": 1409,
      "Produce": 1410,
      "paper": 1411,
      "rhyth": 1412,
      "library": 1413,
      "concert": 1414,
      "browser": 1415,
      "again": 1416,
      "ocean": 1417,
      "sustain": 1418,
      "steampunk": 1419,
      "ambient": 1420,
      "CP": 1421,
      "Do": 1422,
      "La": 1423,
      "bad": 1424,
      "could": 1425,
      "ccess": 1426,
      "denti": 1427,
      "ey": 1428,
      "fit": 1429,
      "fall": 1430,
      "flow": 1431,
      "ggle": 1432,
      "ids": 1433,
      "jour": 1434,
      "rated": 1435,
      "schoo": 1436,
      "tain": 1437,
      "ues": 1438,
      "ually": 1439,
      "wn": 1440,
      "media": 1441,
      "stival": 1442,
      "ani": 1443,
      "enjo": 1444,
      "lete": 1445,
      "tie": 1446,
      "index": 1447,
      "share": 1448,
      "shboard": 1449,
      "moment": 1450,
      "neon": 1451,
      "clock": 1452,
      "festival": 1453,
      "words": 1454,
      "timer": 1455,
      "times": 1456,
      "login": 1457,
      "focus": 1458,
      "file": 1459,
      "endar": 1460,
      "cache": 1461,
      "hacks": 1462,
      "agement": 1463,
      "active": 1464,
      "minute": 1465,
      "cue": 1466,
      "interview": 1467,
      "weekly": 1468,
      "cleaning": 1469,
      "landing": 1470,
      "storm": 1471,
      "techno": 1472,
      "comm": 1473,
      "calendar": 1474,
      "reading": 1475,
      "dashboard": 1476,
      "mute": 1477,
      "science": 1478,
      "trans": 1479,
      "wave": 1480,
      "charact": 1481,
      "history": 1482,
      "cloud": 1483,
      "remote": 1484,
      "stars": 1485,
      "description": 1486,
      "performance": 1487,
      "tweet": 1488,
      "computer": 1489,
      "black": 1490,
      "camera": 1491,
      "brightness": 1492,
      "smooth": 1493,
      "sustainable": 1494,
      "Launch": 1495,
      "dentist": 1496,
      "school": 1497,
      "enjoy": 1498,
      "0s": 1499,
      "DI": 1500,
      "En": 1501,
      "Pull": 1502,
      "Tr": 1503,
      "bor": 1504,
      "blast": 1505,
      "cr": 1506,
      "cine": 1507,
      "eve": 1508,
      "gal": 1509,
      "gine": 1510,
      "gent": 1511,
      "ia": 1512,
      "knight": 1513,
      "kids": 1514,
      "lk": 1515,
      "ot": 1516,
      "info": 1517,
      "inking": 1518,
      "atch": 1519,
      "mellow": 1520,
      "ann": 1521,
      "toggle": 1522,
      "sed": 1523,
      "secur": 1524,
      "enter": 1525,
      "island": 1526,
      "lose": 1527,
      "lake": 1528,
      "rame": 1529,
      "bed": 1530,
      "villa": 1531,
      "scrip": 1532,
      "scription": 1533,
      "usage": 1534,
      "pass": 1535,
      "creating": 1536,
      "exe": 1537,
      "tern": 1538,
      "tions": 1539,
      "conference": 1540,
      "antic": 1541,
      "folk": 1542,
      "romantic": 1543,
      "gui": 1544,
      "gae": 1545,
      "forecast": 1546,
      "buzz": 1547,
      "budget": 1548,
      "letter": 1549,
      "perfect": 1550,
      "present": 1551,
      "speak": 1552,
      "eval": 1553,
      "classics": 1554,
      "ffic": 1555,
      "stuff": 1556,
      "hot": 1557,
      "social": 1558,
      "place": 1559,
      "learn": 1560,
      "submit": 1561,
      "notes": 1562,
      "photography": 1563,
      "balla": 1564,
      "bank": 1565,
      "histor": 1566,
      "reggae": 1567,
      "soulful": 1568,
      "meaning": 1569,
      "challenges": 1570,
      "medieval": 1571,
      "destin": 1572,
      "mystical": 1573,
      "weird": 1574,
      "groceries": 1575,
      "data": 1576,
      "services": 1577,
      "journal": 1578,
      "DIY": 1579,
      "Trigger": 1580,
      "security": 1581,
      "11": 1582,
      "Che": 1583,
      "Dra": 1584,
      "Drop": 1585,
      "Ind": 1586,
      "PC": 1587,
      "Set": 1588,
      "Tok": 1589,
      "ase": 1590,
      "bill": 1591,
      "card": 1592,
      "dad": 1593,
      "food": 1594,
      "gan": 1595,
      "hal": 1596,
      "ian": 1597,
      "ior": 1598,
      "ious": 1599,
      "lon": 1600,
      "plo": 1601,
      "tit": 1602,
      "tap": 1603,
      "twi": 1604,
      "tone": 1605,
      "trop": 1606,
      "uff": 1607,
      "vlogs": 1608,
      "yest": 1609,
      "reel": 1610,
      "store": 1611,
      "ery": 1612,
      "erday": 1613,
      "anci": 1614,
      "orm": 1615,
      "ings": 1616,
      "alive": 1617,
      "iso": 1618,
      "dead": 1619,
      "shuff": 1620,
      "uni": 1621,
      "tea": 1622,
      "makes": 1623,
      "ural": 1624,
      "myth": 1625,
      "traffic": 1626,
      "usion": 1627,
      "sometimes": 1628,
      "expl": 1629,
      "quest": 1630,
      "desk": 1631,
      "office": 1632,
      "plat": 1633,
      "disco": 1634,
      "minim": 1635,
      "episo": 1636,
      "reality": 1637,
      "interior": 1638,
      "gho": 1639,
      "cityscape": 1640,
      "channel": 1641,
      "coming": 1642,
      "prof": 1643,
      "price": 1644,
      "plane": 1645,
      "airplane": 1646,
      "gym": 1647,
      "color": 1648,
      "hello": 1649,
      "match": 1650,
      "magic": 1651,
      "friendly": 1652,
      "basics": 1653,
      "retro": 1654,
      "compilation": 1655,
      "wanna": 1656,
      "anime": 1657,
      "cinematic": 1658,
      "script": 1659,
      "guides": 1660,
      "ballads": 1661,
      "Check": 1662,
      "tropical": 1663,
      "yesterday": 1664,
      "ancient": 1665,
      "deadline": 1666,
      "shuffle": 1667,
      "explor": 1668,
      "minimal": 1669,
      "45": 1670,
      "AQ": 1671,
      "ED": 1672,
      "Mon": 1673,
      "Run": 1674,
      "Sug": 1675,
      "blo": 1676,
      "bil": 1677,
      "bul": 1678,
      "bene": 1679,
      "cam": 1680,
      "cust": 1681,
      "ctive": 1682,
      "ef": 1683,
      "eco": 1684,
      "edu": 1685,
      "fam": 1686,
      "five": 1687,
      "fits": 1688,
      "fish": 1689,
      "gi": 1690,
      "gen": 1691,
      "lin": 1692,
      "lts": 1693,
      "mr": 1694,
      "mate": 1695,
      "oes": 1696,
      "pur": 1697,
      "sit": 1698,
      "snow": 1699,
      "sna": 1700,
      "tual": 1701,
      "va": 1702,
      "vity": 1703,
      "vent": 1704,
      "vac": 1705,
      "volu": 1706,
      "won": 1707,
      "wro": 1708,
      "wood": 1709,
      "wish": 1710,
      "ys": 1711,
      "year": 1712,
      "zard": 1713,
      "inar": 1714,
      "thinking": 1715,
      "reco": 1716,
      "release": 1717,
      "meme": 1718,
      "melo": 1719,
      "mess": 1720,
      "ster": 1721,
      "order": 1722,
      "ars": 1723,
      "around": 1724,
      "cha": 1725,
      "force": 1726,
      "decor": 1727,
      "being": 1728,
      "teach": 1729,
      "doing": 1730,
      "wild": 1731,
      "wizard": 1732,
      "add": 1733,
      "ribe": 1734,
      "pare": 1735,
      "pause": 1736,
      "fetch": 1737,
      "ctor": 1738,
      "wear": 1739,
      "creative": 1740,
      "lyr": 1741,
      "fog": 1742,
      "quir": 1743,
      "things": 1744,
      "download": 1745,
      "haun": 1746,
      "edit": 1747,
      "trees": 1748,
      "curtain": 1749,
      "clever": 1750,
      "management": 1751,
      "account": 1752,
      "generated": 1753,
      "guest": 1754,
      "sessions": 1755,
      "saving": 1756,
      "prep": 1757,
      "skin": 1758,
      "brea": 1759,
      "cycle": 1760,
      "anything": 1761,
      "comic": 1762,
      "feeling": 1763,
      "virtual": 1764,
      "podcasts": 1765,
      "streams": 1766,
      "button": 1767,
      "bio": 1768,
      "drive": 1769,
      "terminal": 1770,
      "notifications": 1771,
      "spir": 1772,
      "flush": 1773,
      "groo": 1774,
      "humans": 1775,
      "interest": 1776,
      "describe": 1777,
      "woman": 1778,
      "thoughts": 1779,
      "flip": 1780,
      "webinar": 1781,
      "cryst": 1782,
      "horror": 1783,
      "jams": 1784,
      "firm": 1785,
      "para": 1786,
      "folder": 1787,
      "phrase": 1788,
      "CPU": 1789,
      "command": 1790,
      "execute": 1791,
      "Draw": 1792,
      "halt": 1793,
      "ghost": 1794,
      "Suggest": 1795,
      "educ": 1796,
      "wrote": 1797,
      "15": 1798,
      "Activ": 1799,
      "Com": 1800,
      "Get": 1801,
      "How": 1802,
      "Hel": 1803,
      "Na": 1804,
      "Pump": 1805,
      "Sun": 1806,
      "Sum": 1807,
      "Un": 1808,
      "Yo": 1809,
      "aur": 1810,
      "agram": 1811,
      "cab": 1812,
      "cour": 1813,
      "fusion": 1814,
      "gar": 1815,
      "gage": 1816,
      "har": 1817,
      "had": 1818,
      "ile": 1819,
      "iet": 1820,
      "lic": 1821,
      "lli": 1822,
      "nba": 1823,
      "nature": 1824,
      "other": 1825,
      "ru": 1826,
      "si": 1827,
      "sam": 1828,
      "sports": 1829,
      "tur": 1830,
      "uti": 1831,
      "thri": 1832,
      "revi": 1833,
      "anal": 1834,
      "alg": 1835,
      "aris": 1836,
      "sec": 1837,
      "secre": 1838,
      "sequ": 1839,
      "tire": 1840,
      "tired": 1841,
      "lier": 1842,
      "liday": 1843,
      "living": 1844,
      "def": 1845,
      "deli": 1846,
      "newe": 1847,
      "setup": 1848,
      "verse": 1849,
      "inten": 1850,
      "code": 1851,
      "pot": 1852,
      "poet": 1853,
      "apply": 1854,
      "listen": 1855,
      "quit": 1856,
      "imagine": 1857,
      "dies": 1858,
      "ends": 1859,
      "boss": 1860,
      "curren": 1861,
      "many": 1862,
      "access": 1863,
      "lively": 1864,
      "mize": 1865,
      "prepare": 1866,
      "bern": 1867,
      "recor": 1868,
      "cleanup": 1869,
      "future": 1870,
      "clip": 1871,
      "climate": 1872,
      "umber": 1873,
      "newsletter": 1874,
      "known": 1875,
      "ctions": 1876,
      "holiday": 1877,
      "headline": 1878,
      "points": 1879,
      "results": 1880,
      "Remind": 1881,
      "throughs": 1882,
      "driver": 1883,
      "driving": 1884,
      "hibern": 1885,
      "joke": 1886,
      "capital": 1887,
      "animals": 1888,
      "smartphones": 1889,
      "signal": 1890,
      "visualize": 1891,
      "emotional": 1892,
      "ferences": 1893,
      "clouds": 1894,
      "remove": 1895,
      "lessons": 1896,
      "ounce": 1897,
      "tooth": 1898,
      "speeches": 1899,
      "snap": 1900,
      "ticket": 1901,
      "thank": 1902,
      "inspi": 1903,
      "practice": 1904,
      "fictional": 1905,
      "pressure": 1906,
      "character": 1907,
      "presentation": 1908,
      "desktop": 1909,
      "Monday": 1910,
      "volume": 1911,
      "recovery": 1912,
      "quirky": 1913,
      "haunted": 1914,
      "Activate": 1915,
      "Compose": 1916,
      "Help": 1917,
      "garage": 1918,
      "revival": 1919,
      "sequence": 1920,
      "newest": 1921,
      "currency": 1922,
      "..": 1923,
      "AS": 1924,
      "Access": 1925,
      "Close": 1926,
      "Dis": 1927,
      "Que": 1928,
      "Sp": 1929,
      "Ti": 1930,
      "bar": 1931,
      "bun": 1932,
      "block": 1933,
      "cop": 1934,
      "cand": 1935,
      "easy": 1936,
      "foot": 1937,
      "hard": 1938,
      "hero": 1939,
      "ible": 1940,
      "ibil": 1941,
      "ming": 1942,
      "ni": 1943,
      "norm": 1944,
      "ov": 1945,
      "sal": 1946,
      "sli": 1947,
      "smo": 1948,
      "smi": 1949,
      "tri": 1950,
      "tend": 1951,
      "two": 1952,
      "ub": 1953,
      "vlog": 1954,
      "wit": 1955,
      "zon": 1956,
      "zed": 1957,
      "iness": 1958,
      "tho": 1959,
      "thor": 1960,
      "aturing": 1961,
      "men": 1962,
      "menu": 1963,
      "then": 1964,
      "stay": 1965,
      "ough": 1966,
      "albu": 1967,
      "sen": 1968,
      "chor": 1969,
      "chart": 1970,
      "icket": 1971,
      "forms": 1972,
      "upcoming": 1973,
      "defa": 1974,
      "unbox": 1975,
      "door": 1976,
      "cele": 1977,
      "uration": 1978,
      "apter": 1979,
      "widget": 1980,
      "opti": 1981,
      "opener": 1982,
      "options": 1983,
      "usk": 1984,
      "using": 1985,
      "cold": 1986,
      "rid": 1987,
      "rior": 1988,
      "featuring": 1989,
      "creature": 1990,
      "cancel": 1991,
      "logy": 1992,
      "convers": 1993,
      "quiet": 1994,
      "ped": 1995,
      "okay": 1996,
      "body": 1997,
      "cake": 1998,
      "alerts": 1999,
      "popup": 2000,
      "server": 2001,
      "preferences": 2002,
      "uetooth": 2003,
      "mark": 2004,
      "author": 2005,
      "overlay": 2006,
      "cars": 2007,
      "carto": 2008,
      "documentary": 2009,
      "strate": 2010,
      "humid": 2011,
      "name": 2012,
      "tail": 2013,
      "gameplay": 2014,
      "restaur": 2015,
      "meditate": 2016,
      "beginner": 2017,
      "actually": 2018,
      "subscription": 2019,
      "flu": 2020,
      "skyline": 2021,
      "blues": 2022,
      "healthy": 2023,
      "mission": 2024,
      "performances": 2025,
      "warrior": 2026,
      "inven": 2027,
      "super": 2028,
      "silence": 2029,
      "freshest": 2030,
      "scores": 2031,
      "summary": 2032,
      "Shut": 2033,
      "refill": 2034,
      "depicting": 2035,
      "configuration": 2036,
      "fitness": 2037,
      "interviews": 2038,
      "cricket": 2039,
      "village": 2040,
      "destinations": 2041,
      "India": 2042,
      "mythical": 2043,
      "exploration": 2044,
      "bullet": 2045,
      "lyrics": 2046,
      "paragraph": 2047,
      "secret": 2048,
      "Queue": 2049,
      "copy": 2050,
      "normal": 2051,
      "oven": 2052,
      "smile": 2053,
      "unboxing": 2054,
      "restaurant": 2055,
      "BI": 2056,
      "Bl": 2057,
      "Ch": 2058,
      "Craft": 2059,
      "EO": 2060,
      "Ear": 2061,
      "Elon": 2062,
      "Gen": 2063,
      "Hey": 2064,
      "Pa": 2065,
      "Send": 2066,
      "UI": 2067,
      "US": 2068,
      "ai": 2069,
      "cul": 2070,
      "em": 2071,
      "eth": 2072,
      "eating": 2073,
      "gl": 2074,
      "gad": 2075,
      "gies": 2076,
      "grow": 2077,
      "gence": 2078,
      "hy": 2079,
      "hook": 2080,
      "ipe": 2081,
      "jun": 2082,
      "kind": 2083,
      "lor": 2084,
      "lar": 2085,
      "lting": 2086,
      "ner": 2087,
      "oil": 2088,
      "ocal": 2089,
      "pm": 2090,
      "pri": 2091,
      "pir": 2092,
      "punch": 2093,
      "prise": 2094,
      "rate": 2095,
      "sol": 2096,
      "tube": 2097,
      "trip": 2098,
      "ura": 2099,
      "uro": 2100,
      "van": 2101,
      "wis": 2102,
      "ywood": 2103,
      "atur": 2104,
      "melting": 2105,
      "therap": 2106,
      "theory": 2107,
      "onment": 2108,
      "erci": 2109,
      "ouch": 2110,
      "toge": 2111,
      "ality": 2112,
      "ari": 2113,
      "armor": 2114,
      "sea": 2115,
      "secon": 2116,
      "ense": 2117,
      "envir": 2118,
      "ows": 2119,
      "ities": 2120,
      "cho": 2121,
      "ism": 2122,
      "los": 2123,
      "loop": 2124,
      "radio": 2125,
      "tip": 2126,
      "lieve": 2127,
      "dete": 2128,
      "delete": 2129,
      "youtube": 2130,
      "shar": 2131,
      "beast": 2132,
      "believe": 2133,
      "ller": 2134,
      "map": 2135,
      "mazon": 2136,
      "doc": 2137,
      "outro": 2138,
      "apan": 2139,
      "apocal": 2140,
      "mindful": 2141,
      "omer": 2142,
      "playback": 2143,
      "scen": 2144,
      "trash": 2145,
      "cosm": 2146,
      "past": 2147,
      "poke": 2148,
      "poll": 2149,
      "progre": 2150,
      "creat": 2151,
      "exist": 2152,
      "explo": 2153,
      "exerci": 2154,
      "gets": 2155,
      "getic": 2156,
      "fade": 2157,
      "leash": 2158,
      "energetic": 2159,
      "listening": 2160,
      "showcas": 2161,
      "die": 2162,
      "dif": 2163,
      "bored": 2164,
      "caf": 2165,
      "case": 2166,
      "viewer": 2167,
      "lightning": 2168,
      "windows": 2169,
      "sounding": 2170,
      "waterfall": 2171,
      "pizz": 2172,
      "rank": 2173,
      "even": 2174,
      "stories": 2175,
      "mailbox": 2176,
      "surprise": 2177,
      "visit": 2178,
      "documents": 2179,
      "understand": 2180,
      "blogs": 2181,
      "ready": 2182,
      "catch": 2183,
      "games": 2184,
      "airport": 2185,
      "earlier": 2186,
      "robots": 2187,
      "robotic": 2188,
      "trick": 2189,
      "motivation": 2190,
      "graphic": 2191,
      "much": 2192,
      "version": 2193,
      "animal": 2194,
      "pieces": 2195,
      "summer": 2196,
      "charge": 2197,
      "regist": 2198,
      "emotions": 2199,
      "film": 2200,
      "filter": 2201,
      "films": 2202,
      "nostalg": 2203,
      "intelli": 2204,
      "greeting": 2205,
      "flix": 2206,
      "countryside": 2207,
      "drink": 2208,
      "midnight": 2209,
      "challenge": 2210,
      "package": 2211,
      "first": 2212,
      "wallpaper": 2213,
      "monthly": 2214,
      "rhythm": 2215,
      "technology": 2216,
      "transform": 2217,
      "password": 2218,
      "historical": 2219,
      "twist": 2220,
      "question": 2221,
      "platforms": 2222,
      "benefits": 2223,
      "customer": 2224,
      "purpose": 2225,
      "melodies": 2226,
      "message": 2227,
      "skincare": 2228,
      "firmware": 2229,
      "Name": 2230,
      "Sunday": 2231,
      "samura": 2232,
      "thriller": 2233,
      "delivery": 2234,
      "tickets": 2235,
      "album": 2236,
      "default": 2237,
      "BIOS": 2238,
      "Bluetooth": 2239,
      "Earth": 2240,
      "Paint": 2241,
      "jungle": 2242,
      "pirate": 2243,
      "wisdom": 2244,
      "together": 2245,
      "environment": 2246,
      "apocaly": 2247,
      "cosmic": 2248,
      "progress": 2249,
      "showcasing": 2250,
      "pizza": 2251,
      "intelligence": 2252,
      "samurai": 2253,
      "90s": 2254,
      "CT": 2255,
      "Ex": 2256,
      "FAQ": 2257,
      "Hit": 2258,
      "Ill": 2259,
      "Just": 2260,
      "Kill": 2261,
      "Ne": 2262,
      "Th": 2263,
      "The": 2264,
      "Take": 2265,
      "Wor": 2266,
      "Where": 2267,
      "ax": 2268,
      "amy": 2269,
      "bus": 2270,
      "bers": 2271,
      "cir": 2272,
      "cers": 2273,
      "center": 2274,
      "don": 2275,
      "dits": 2276,
      "fan": 2277,
      "gla": 2278,
      "has": 2279,
      "hone": 2280,
      "ise": 2281,
      "ios": 2282,
      "ker": 2283,
      "lou": 2284,
      "lity": 2285,
      "loun": 2286,
      "mir": 2287,
      "mul": 2288,
      "nit": 2289,
      "nded": 2290,
      "pal": 2291,
      "patch": 2292,
      "sw": 2293,
      "sar": 2294,
      "sla": 2295,
      "swi": 2296,
      "table": 2297,
      "touch": 2298,
      "ward": 2299,
      "wings": 2300,
      "xel": 2301,
      "ya": 2302,
      "insur": 2303,
      "inspir": 2304,
      "reduce": 2305,
      "ater": 2306,
      "metal": 2307,
      "memes": 2308,
      "only": 2309,
      "error": 2310,
      "orche": 2311,
      "altern": 2312,
      "already": 2313,
      "artif": 2314,
      "seal": 2315,
      "enchan": 2316,
      "enough": 2317,
      "leg": 2318,
      "left": 2319,
      "chess": 2320,
      "child": 2321,
      "icial": 2322,
      "issu": 2323,
      "lofi": 2324,
      "local": 2325,
      "law": 2326,
      "roo": 2327,
      "ately": 2328,
      "deve": 2329,
      "whis": 2330,
      "she": 2331,
      "shad": 2332,
      "shoes": 2333,
      "main": 2334,
      "mainten": 2335,
      "via": 2336,
      "vive": 2337,
      "doctor": 2338,
      "outta": 2339,
      "urb": 2340,
      "urban": 2341,
      "wipe": 2342,
      "wires": 2343,
      "mock": 2344,
      "moments": 2345,
      "oper": 2346,
      "scrap": 2347,
      "ssible": 2348,
      "adapter": 2349,
      "noise": 2350,
      "cover": 2351,
      "ries": 2352,
      "ride": 2353,
      "path": 2354,
      "possible": 2355,
      "few": 2356,
      "well": 2357,
      "ched": 2358,
      "heav": 2359,
      "crease": 2360,
      "credits": 2361,
      "expe": 2362,
      "term": 2363,
      "conne": 2364,
      "antum": 2365,
      "due": 2366,
      "quality": 2367,
      "quantum": 2368,
      "showing": 2369,
      "fix": 2370,
      "did": 2371,
      "ending": 2372,
      "cave": 2373,
      "offline": 2374,
      "editor": 2375,
      "bake": 2376,
      "ures": 2377,
      "curios": 2378,
      "gold": 2379,
      "ustrate": 2380,
      "buil": 2381,
      "immedi": 2382,
      "playlists": 2383,
      "dern": 2384,
      "anced": 2385,
      "watercolor": 2386,
      "model": 2387,
      "marize": 2388,
      "pixel": 2389,
      "range": 2390,
      "special": 2391,
      "funk": 2392,
      "classical": 2393,
      "firewall": 2394,
      "portal": 2395,
      "surrou": 2396,
      "company": 2397,
      "vision": 2398,
      "visibil": 2399,
      "umn": 2400,
      "rainy": 2401,
      "feels": 2402,
      "dreamy": 2403,
      "called": 2404,
      "studio": 2405,
      "soon": 2406,
      "humor": 2407,
      "tag": 2408,
      "tax": 2409,
      "virus": 2410,
      "print": 2411,
      "airship": 2412,
      "colla": 2413,
      "breakfast": 2414,
      "Restart": 2415,
      "tabs": 2416,
      "void": 2417,
      "job": 2418,
      "battle": 2419,
      "finance": 2420,
      "walkthroughs": 2421,
      "watching": 2422,
      "wash": 2423,
      "animated": 2424,
      "marketing": 2425,
      "hours": 2426,
      "applications": 2427,
      "lapse": 2428,
      "routine": 2429,
      "resour": 2430,
      "crash": 2431,
      "warning": 2432,
      "talking": 2433,
      "little": 2434,
      "happen": 2435,
      "summarize": 2436,
      "Shape": 2437,
      "autumn": 2438,
      "experiments": 2439,
      "handle": 2440,
      "depiction": 2441,
      "nearby": 2442,
      "rhythms": 2443,
      "flowers": 2444,
      "Engage": 2445,
      "islands": 2446,
      "speakers": 2447,
      "hottest": 2448,
      "Tokyo": 2449,
      "episode": 2450,
      "profile": 2451,
      "EDM": 2452,
      "liner": 2453,
      "snowy": 2454,
      "chaos": 2455,
      "Summarize": 2456,
      "cabin": 2457,
      "utility": 2458,
      "footage": 2459,
      "those": 2460,
      "celebr": 2461,
      "optimize": 2462,
      "humidity": 2463,
      "superhero": 2464,
      "largest": 2465,
      "solar": 2466,
      "sharp": 2467,
      "explore": 2468,
      "nostalgic": 2469,
      "greetings": 2470,
      "CTA": 2471,
      "Illustrate": 2472,
      "mirror": 2473,
      "insurance": 2474,
      "artificial": 2475,
      "enchanted": 2476,
      "develo": 2477,
      "maintenance": 2478,
      "heavy": 2479,
      "curiosity": 2480,
      "immediately": 2481,
      "surrounded": 2482,
      "visibility": 2483,
      "12": 2484,
      "19": 2485,
      "Ar": 2486,
      "Add": 2487,
      "Ban": 2488,
      "Boll": 2489,
      "Euro": 2490,
      "Fren": 2491,
      "Frame": 2492,
      "GP": 2493,
      "ID": 2494,
      "Japan": 2495,
      "Lin": 2496,
      "Mo": 2497,
      "Mars": 2498,
      "Musk": 2499,
      "Nu": 2500,
      "Net": 2501,
      "Pop": 2502,
      "Sketch": 2503,
      "Satur": 2504,
      "Tes": 2505,
      "Twit": 2506,
      "ath": 2507,
      "ash": 2508,
      "astr": 2509,
      "aded": 2510,
      "amazon": 2511,
      "bra": 2512,
      "ball": 2513,
      "cro": 2514,
      "cent": 2515,
      "crow": 2516,
      "dan": 2517,
      "eld": 2518,
      "frame": 2519,
      "hic": 2520,
      "hind": 2521,
      "hall": 2522,
      "hill": 2523,
      "ix": 2524,
      "imp": 2525,
      "ivity": 2526,
      "jok": 2527,
      "junk": 2528,
      "ken": 2529,
      "kTok": 2530,
      "knit": 2531,
      "nap": 2532,
      "nice": 2533,
      "nival": 2534,
      "oor": 2535,
      "otic": 2536,
      "odd": 2537,
      "pu": 2538,
      "pto": 2539,
      "pad": 2540,
      "pha": 2541,
      "park": 2542,
      "pinterest": 2543,
      "ris": 2544,
      "sion": 2545,
      "sical": 2546,
      "slow": 2547,
      "sses": 2548,
      "tt": 2549,
      "tw": 2550,
      "tes": 2551,
      "tour": 2552,
      "try": 2553,
      "ud": 2554,
      "uel": 2555,
      "uses": 2556,
      "vs": 2557,
      "vit": 2558,
      "vol": 2559,
      "wal": 2560,
      "warm": 2561,
      "yet": 2562,
      "iny": 2563,
      "inform": 2564,
      "invoice": 2565,
      "influ": 2566,
      "reload": 2567,
      "resp": 2568,
      "really": 2569,
      "reaction": 2570,
      "attend": 2571,
      "mead": 2572,
      "stract": 2573,
      "once": 2574,
      "erial": 2575,
      "anno": 2576,
      "ancial": 2577,
      "organ": 2578,
      "town": 2579,
      "alle": 2580,
      "ara": 2581,
      "arti": 2582,
      "section": 2583,
      "enga": 2584,
      "enix": 2585,
      "lead": 2586,
      "lect": 2587,
      "ition": 2588,
      "chain": 2589,
      "loaded": 2590,
      "lazy": 2591,
      "roid": 2592,
      "upload": 2593,
      "indoor": 2594,
      "detail": 2595,
      "vet": 2596,
      "vered": 2597,
      "vegan": 2598,
      "vehic": 2599,
      "whal": 2600,
      "whip": 2601,
      "whim": 2602,
      "which": 2603,
      "shell": 2604,
      "shoot": 2605,
      "shot": 2606,
      "key": 2607,
      "bet": 2608,
      "betwe": 2609,
      "behind": 2610,
      "une": 2611,
      "unplug": 2612,
      "teas": 2613,
      "ional": 2614,
      "viol": 2615,
      "output": 2616,
      "myself": 2617,
      "modern": 2618,
      "aylor": 2619,
      "abstract": 2620,
      "neo": 2621,
      "clocks": 2622,
      "vert": 2623,
      "iling": 2624,
      "novel": 2625,
      "covers": 2626,
      "riding": 2627,
      "pain": 2628,
      "pair": 2629,
      "poem": 2630,
      "ams": 2631,
      "wel": 2632,
      "promo": 2633,
      "proces": 2634,
      "timeout": 2635,
      "hed": 2636,
      "credit": 2637,
      "starts": 2638,
      "logic": 2639,
      "contra": 2640,
      "concl": 2641,
      "duck": 2642,
      "asmr": 2643,
      "ques": 2644,
      "shows": 2645,
      "field": 2646,
      "suit": 2647,
      "ignite": 2648,
      "works": 2649,
      "working": 2650,
      "workshop": 2651,
      "looking": 2652,
      "baking": 2653,
      "opening": 2654,
      "plumber": 2655,
      "Whip": 2656,
      "tracker": 2657,
      "updater": 2658,
      "mini": 2659,
      "gospe": 2660,
      "bug": 2661,
      "realtime": 2662,
      "soundtracks": 2663,
      "castic": 2664,
      "saver": 2665,
      "bye": 2666,
      "overview": 2667,
      "carnival": 2668,
      "functions": 2669,
      "recipe": 2670,
      "brella": 2671,
      "techni": 2672,
      "surf": 2673,
      "survive": 2674,
      "umbrella": 2675,
      "club": 2676,
      "dress": 2677,
      "calm": 2678,
      "underground": 2679,
      "highlight": 2680,
      "stral": 2681,
      "headlines": 2682,
      "articles": 2683,
      "planning": 2684,
      "ears": 2685,
      "earth": 2686,
      "emails": 2687,
      "bike": 2688,
      "ptic": 2689,
      "facts": 2690,
      "programming": 2691,
      "final": 2692,
      "financial": 2693,
      "mush": 2694,
      "phoenix": 2695,
      "gardening": 2696,
      "blue": 2697,
      "instagram": 2698,
      "marketplace": 2699,
      "friends": 2700,
      "Initiate": 2701,
      "Invent": 2702,
      "introdu": 2703,
      "emotionally": 2704,
      "tools": 2705,
      "writer": 2706,
      "trailer": 2707,
      "great": 2708,
      "another": 2709,
      "aliens": 2710,
      "Provide": 2711,
      "crack": 2712,
      "crypto": 2713,
      "drone": 2714,
      "flash": 2715,
      "silent": 2716,
      "electricity": 2717,
      "electrician": 2718,
      "basic": 2719,
      "olution": 2720,
      "avat": 2721,
      "practices": 2722,
      "rolling": 2723,
      "phrases": 2724,
      "synthwave": 2725,
      "translate": 2726,
      "galax": 2727,
      "gently": 2728,
      "announce": 2729,
      "perfectly": 2730,
      "historic": 2731,
      "journaling": 2732,
      "title": 2733,
      "titles": 2734,
      "universe": 2735,
      "episodes": 2736,
      "family": 2737,
      "famous": 2738,
      "gift": 2739,
      "gency": 2740,
      "mrbeast": 2741,
      "sitting": 2742,
      "snack": 2743,
      "wonder": 2744,
      "ysis": 2745,
      "downloads": 2746,
      "editing": 2747,
      "groove": 2748,
      "crystal": 2749,
      "crystals": 2750,
      "educational": 2751,
      "courses": 2752,
      "analysis": 2753,
      "poetry": 2754,
      "recording": 2755,
      "hibernate": 2756,
      "inspired": 2757,
      "Spin": 2758,
      "TikTok": 2759,
      "bunny": 2760,
      "blockchain": 2761,
      "hardware": 2762,
      "slides": 2763,
      "chords": 2764,
      "cartoon": 2765,
      "strategies": 2766,
      "therapy": 2767,
      "second": 2768,
      "exercise": 2769,
      "café": 2770,
      "apocalyptic": 2771,
      "Exit": 2772,
      "business": 2773,
      "honest": 2774,
      "lounge": 2775,
      "sarcastic": 2776,
      "slam": 2777,
      "orchestral": 2778,
      "whisper": 2779,
      "specials": 2780,
      "Bollywood": 2781,
      "French": 2782,
      "Netflix": 2783,
      "Saturday": 2784,
      "Tesla": 2785,
      "Twitter": 2786,
      "astron": 2787,
      "publ": 2788,
      "vitam": 2789,
      "influen": 2790,
      "meadow": 2791,
      "annoy": 2792,
      "engaging": 2793,
      "whimsical": 2794,
      "between": 2795,
      "teaser": 2796,
      "processes": 2797,
      "gospel": 2798,
      "techniques": 2799,
      "cryptocurrency": 2800,
      "announcement": 2801,
      "3D": 2802,
      "AP": 2803,
      "Bu": 2804,
      "CO": 2805,
      "Con": 2806,
      "Cook": 2807,
      "DN": 2808,
      "Del": 2809,
      "Eve": 2810,
      "For": 2811,
      "Git": 2812,
      "Lat": 2813,
      "MR": 2814,
      "Mount": 2815,
      "No": 2816,
      "Paris": 2817,
      "RAM": 2818,
      "Switch": 2819,
      "Span": 2820,
      "SEO": 2821,
      "TV": 2822,
      "To": 2823,
      "Tues": 2824,
      "TED": 2825,
      "Wind": 2826,
      "Wed": 2827,
      "Wrap": 2828,
      "ave": 2829,
      "aking": 2830,
      "bon": 2831,
      "bing": 2832,
      "bri": 2833,
      "bble": 2834,
      "cket": 2835,
      "cted": 2836,
      "din": 2837,
      "dar": 2838,
      "dle": 2839,
      "dic": 2840,
      "eg": 2841,
      "eat": 2842,
      "eded": 2843,
      "fuel": 2844,
      "gall": 2845,
      "gir": 2846,
      "gers": 2847,
      "grou": 2848,
      "her": 2849,
      "hab": 2850,
      "ii": 2851,
      "ilos": 2852,
      "jump": 2853,
      "jud": 2854,
      "ks": 2855,
      "kitch": 2856,
      "kara": 2857,
      "lt": 2858,
      "ler": 2859,
      "mine": 2860,
      "mone": 2861,
      "mong": 2862,
      "nes": 2863,
      "num": 2864,
      "number": 2865,
      "ove": 2866,
      "oke": 2867,
      "ple": 2868,
      "psy": 2869,
      "pitch": 2870,
      "pump": 2871,
      "ron": 2872,
      "ration": 2873,
      "soo": 2874,
      "sand": 2875,
      "spo": 2876,
      "site": 2877,
      "sim": 2878,
      "tar": 2879,
      "ux": 2880,
      "ude": 2881,
      "vap": 2882,
      "vari": 2883,
      "viny": 2884,
      "wing": 2885,
      "wwe": 2886,
      "winter": 2887,
      "yal": 2888,
      "zing": 2889,
      "zero": 2890,
      "ina": 2891,
      "inve": 2892,
      "increase": 2893,
      "thread": 2894,
      "ress": 2895,
      "research": 2896,
      "retre": 2897,
      "recom": 2898,
      "relat": 2899,
      "replace": 2900,
      "atten": 2901,
      "meal": 2902,
      "mend": 2903,
      "meds": 2904,
      "meta": 2905,
      "metap": 2906,
      "thes": 2907,
      "they": 2908,
      "theme": 2909,
      "their": 2910,
      "state": 2911,
      "stage": 2912,
      "strip": 2913,
      "stagram": 2914,
      "erly": 2915,
      "anti": 2916,
      "orn": 2917,
      "orig": 2918,
      "ories": 2919,
      "arf": 2920,
      "argu": 2921,
      "eng": 2922,
      "owl": 2923,
      "ledge": 2924,
      "ites": 2925,
      "icy": 2926,
      "icine": 2927,
      "icorn": 2928,
      "ished": 2929,
      "racing": 2930,
      "radar": 2931,
      "royal": 2932,
      "ateboard": 2933,
      "lies": 2934,
      "dec": 2935,
      "dev": 2936,
      "deal": 2937,
      "delay": 2938,
      "deactivate": 2939,
      "delic": 2940,
      "vey": 2941,
      "lly": 2942,
      "unicorn": 2943,
      "making": 2944,
      "dol": 2945,
      "dock": 2946,
      "urs": 2947,
      "wide": 2948,
      "modu": 2949,
      "ometr": 2950,
      "plays": 2951,
      "played": 2952,
      "playful": 2953,
      "abort": 2954,
      "andma": 2955,
      "neural": 2956,
      "needed": 2957,
      "scarf": 2958,
      "advice": 2959,
      "trap": 2960,
      "users": 2961,
      "verif": 2962,
      "close_": 2963,
      "core": 2964,
      "colate": 2965,
      "river": 2966,
      "rieve": 2967,
      "pact": 2968,
      "paign": 2969,
      "parent": 2970,
      "stest": 2971,
      "poses": 2972,
      "someone": 2973,
      "ferent": 2974,
      "weight": 2975,
      "proper": 2976,
      "chedelic": 2977,
      "archive": 2978,
      "days": 2979,
      "exchange": 2980,
      "fastest": 2981,
      "conso": 2982,
      "consci": 2983,
      "consi": 2984,
      "dump": 2985,
      "asure": 2986,
      "asmong": 2987,
      "fox": 2988,
      "quare": 2989,
      "quake": 2990,
      "success": 2991,
      "dist": 2992,
      "dience": 2993,
      "downloaded": 2994,
      "ignment": 2995,
      "ender": 2996,
      "created": 2997,
      "hair": 2998,
      "haul": 2999,
      "lookup": 3000,
      "philos": 3001,
      "edge": 3002,
      "treasure": 3003,
      "based": 3004,
      "curled": 3005,
      "curious": 3006,
      "dismiss": 3007,
      "gue": 3008,
      "grab": 3009,
      "gravity": 3010,
      "ropy": 3011,
      "cussion": 3012,
      "imme": 3013,
      "impact": 3014,
      "yourself": 3015,
      "perform": 3016,
      "perched": 3017,
      "percent": 3018,
      "casting": 3019,
      "sass": 3020,
      "said": 3021,
      "bootcam": 3022,
      "serve": 3023,
      "preview": 3024,
      "prescription": 3025,
      "productive": 3026,
      "mars": 3027,
      "internet": 3028,
      "audit": 3029,
      "audience": 3030,
      "akes": 3031,
      "carry": 3032,
      "carouse": 3033,
      "recy": 3034,
      "recap": 3035,
      "skip": 3036,
      "skateboard": 3037,
      "compose": 3038,
      "complete": 3039,
      "comparis": 3040,
      "cook": 3041,
      "mixes": 3042,
      "raining": 3043,
      "click": 3044,
      "homepage": 3045,
      "knowledge": 3046,
      "chillstep": 3047,
      "hob": 3048,
      "hole": 3049,
      "hold": 3050,
      "oming": 3051,
      "sidemen": 3052,
      "nah": 3053,
      "places": 3054,
      "talks": 3055,
      "cats": 3056,
      "stats": 3057,
      "printer": 3058,
      "early": 3059,
      "grandma": 3060,
      "single": 3061,
      "meditating": 3062,
      "helps": 3063,
      "Rewrite": 3064,
      "butter": 3065,
      "trance": 3066,
      "drives": 3067,
      "killer": 3068,
      "jelly": 3069,
      "lantern": 3070,
      "spark": 3071,
      "flat": 3072,
      "fridge": 3073,
      "pickup": 3074,
      "ritual": 3075,
      "studying": 3076,
      "audiobook": 3077,
      "lifestyle": 3078,
      "shorts": 3079,
      "queen": 3080,
      "bless": 3081,
      "summon": 3082,
      "charger": 3083,
      "Instagram": 3084,
      "assignment": 3085,
      "missions": 3086,
      "ships": 3087,
      "quotes": 3088,
      "explaining": 3089,
      "integr": 3090,
      "memories": 3091,
      "started": 3092,
      "shopping": 3093,
      "cord": 3094,
      "flies": 3095,
      "sync": 3096,
      "struct": 3097,
      "bird": 3098,
      "crave": 3099,
      "ential": 3100,
      "flag": 3101,
      "snip": 3102,
      "projects": 3103,
      "computing": 3104,
      "installer": 3105,
      "type": 3106,
      "levels": 3107,
      "happy": 3108,
      "happening": 3109,
      "kickstart": 3110,
      "parcel": 3111,
      "medicine": 3112,
      "plugin": 3113,
      "reflection": 3114,
      "kedIn": 3115,
      "features": 3116,
      "experiment": 3117,
      "experimental": 3118,
      "compilations": 3119,
      "controls": 3120,
      "characters": 3121,
      "galore": 3122,
      "bedtime": 3123,
      "villain": 3124,
      "bills": 3125,
      "questions": 3126,
      "platform": 3127,
      "discovered": 3128,
      "profess": 3129,
      "minimalist": 3130,
      "blox": 3131,
      "campaign": 3132,
      "snacks": 3133,
      "vacc": 3134,
      "chaotic": 3135,
      "teacher": 3136,
      "wildlife": 3137,
      "wearing": 3138,
      "grooves": 3139,
      "interesting": 3140,
      "education": 3141,
      "Unleash": 3142,
      "poetic": 3143,
      "record": 3144,
      "hibernation": 3145,
      "...": 3146,
      "ASMR": 3147,
      "candy": 3148,
      "smoke": 3149,
      "trivia": 3150,
      "sense": 3151,
      "conversation": 3152,
      "invented": 3153,
      "USD": 3154,
      "glitch": 3155,
      "gadgets": 3156,
      "prime": 3157,
      "chocolate": 3158,
      "detective": 3159,
      "mindfulness": 3160,
      "scenic": 3161,
      "creator": 3162,
      "different": 3163,
      "catchy": 3164,
      "glasses": 3165,
      "kernel": 3166,
      "loud": 3167,
      "multi": 3168,
      "palm": 3169,
      "alternative": 3170,
      "issues": 3171,
      "sheet": 3172,
      "shades": 3173,
      "expected": 3174,
      "connect": 3175,
      "building": 3176,
      "resource": 3177,
      "develop": 3178,
      "123": 3179,
      "Bangalore": 3180,
      "Europe": 3181,
      "LinkedIn": 3182,
      "jokes": 3183,
      "oddly": 3184,
      "phase": 3185,
      "twice": 3186,
      "volcan": 3187,
      "details": 3188,
      "better": 3189,
      "violin": 3190,
      "novels": 3191,
      "painted": 3192,
      "earthquake": 3193,
      "avatar": 3194,
      "astronaut": 3195,
      "vitamin": 3196,
      "influencers": 3197,
      "Build": 3198,
      "Delhi": 3199,
      "Everest": 3200,
      "Latin": 3201,
      "Spanish": 3202,
      "Tuesday": 3203,
      "Windows": 3204,
      "Wednes": 3205,
      "egg": 3206,
      "girl": 3207,
      "group": 3208,
      "kitchen": 3209,
      "karaoke": 3210,
      "minecraft": 3211,
      "numbers": 3212,
      "psychedelic": 3213,
      "vapor": 3214,
      "variations": 3215,
      "vinyl": 3216,
      "invest": 3217,
      "retreat": 3218,
      "recommend": 3219,
      "metaphor": 3220,
      "antivirus": 3221,
      "ometric": 3222,
      "verify": 3223,
      "properly": 3224,
      "console": 3225,
      "conscious": 3226,
      "consider": 3227,
      "asmongold": 3228,
      "philosop": 3229,
      "bootcamps": 3230,
      "carousel": 3231,
      "Wednesday": 3232,
      "An": 3233,
      "Are": 3234,
      "Ass": 3235,
      "BA": 3236,
      "Bre": 3237,
      "Boot": 3238,
      "Broad": 3239,
      "Cel": 3240,
      "Cance": 3241,
      "Could": 3242,
      "CEO": 3243,
      "DJ": 3244,
      "EU": 3245,
      "End": 3246,
      "Fet": 3247,
      "Form": 3248,
      "IG": 3249,
      "IS": 3250,
      "Lon": 3251,
      "Mar": 3252,
      "NBA": 3253,
      "Pri": 3254,
      "Power": 3255,
      "Push": 3256,
      "Ri": 3257,
      "Sc": 3258,
      "Sup": 3259,
      "TP": 3260,
      "Tra": 3261,
      "Tune": 3262,
      "UV": 3263,
      "VID": 3264,
      "ah": 3265,
      "aw": 3266,
      "ack": 3267,
      "aware": 3268,
      "ages": 3269,
      "agent": 3270,
      "agency": 3271,
      "band": 3272,
      "burn": 3273,
      "bounce": 3274,
      "cou": 3275,
      "cation": 3276,
      "crit": 3277,
      "crank": 3278,
      "dun": 3279,
      "dent": 3280,
      "ddy": 3281,
      "dusk": 3282,
      "ered": 3283,
      "far": 3284,
      "found": 3285,
      "fting": 3286,
      "farm": 3287,
      "flights": 3288,
      "glo": 3289,
      "gment": 3290,
      "gas": 3291,
      "ggy": 3292,
      "ggest": 3293,
      "gging": 3294,
      "gimme": 3295,
      "han": 3296,
      "hou": 3297,
      "hun": 3298,
      "hoo": 3299,
      "hur": 3300,
      "iz": 3301,
      "ike": 3302,
      "ius": 3303,
      "ibr": 3304,
      "ivers": 3305,
      "iphone": 3306,
      "iled": 3307,
      "idol": 3308,
      "ku": 3309,
      "kit": 3310,
      "lul": 3311,
      "mation": 3312,
      "mist": 3313,
      "mble": 3314,
      "mming": 3315,
      "nic": 3316,
      "ob": 3317,
      "od": 3318,
      "oily": 3319,
      "pow": 3320,
      "pun": 3321,
      "pill": 3322,
      "ply": 3323,
      "push": 3324,
      "python": 3325,
      "pending": 3326,
      "plies": 3327,
      "ral": 3328,
      "rone": 3329,
      "sor": 3330,
      "sad": 3331,
      "slog": 3332,
      "sonic": 3333,
      "tor": 3334,
      "tall": 3335,
      "tong": 3336,
      "tles": 3337,
      "taylor": 3338,
      "uce": 3339,
      "vanced": 3340,
      "wer": 3341,
      "wdi": 3342,
      "wol": 3343,
      "yon": 3344,
      "zen": 3345,
      "ination": 3346,
      "inste": 3347,
      "incess": 3348,
      "inside": 3349,
      "inbox": 3350,
      "thro": 3351,
      "throom": 3352,
      "throne": 3353,
      "return": 3354,
      "refun": 3355,
      "refresh": 3356,
      "rewell": 3357,
      "repair": 3358,
      "reply": 3359,
      "ato": 3360,
      "atmo": 3361,
      "atory": 3362,
      "memo": 3363,
      "meter": 3364,
      "mechan": 3365,
      "them": 3366,
      "thent": 3367,
      "sty": 3368,
      "stin": 3369,
      "stall": 3370,
      "ony": 3371,
      "onial": 3372,
      "oned": 3373,
      "onder": 3374,
      "era": 3375,
      "answ": 3376,
      "orant": 3377,
      "tocol": 3378,
      "tower": 3379,
      "alo": 3380,
      "aling": 3381,
      "arity": 3382,
      "selection": 3383,
      "ency": 3384,
      "engage": 3385,
      "lex": 3386,
      "lest": 3387,
      "chas": 3388,
      "icing": 3389,
      "lot": 3390,
      "location": 3391,
      "lab": 3392,
      "lawn": 3393,
      "lava": 3394,
      "race": 3395,
      "racy": 3396,
      "rome": 3397,
      "roof": 3398,
      "roast": 3399,
      "rocket": 3400,
      "roblox": 3401,
      "uptime": 3402,
      "ligh": 3403,
      "limit": 3404,
      "ligraphy": 3405,
      "gem": 3406,
      "whel": 3407,
      "white": 3408,
      "shi": 3409,
      "shel": 3410,
      "bel": 3411,
      "beam": 3412,
      "beep": 3413,
      "beau": 3414,
      "become": 3415,
      "belong": 3416,
      "beaut": 3417,
      "lls": 3418,
      "unity": 3419,
      "unwind": 3420,
      "tel": 3421,
      "teeth": 3422,
      "maps": 3423,
      "master": 3424,
      "igno": 3425,
      "oom": 3426,
      "utter": 3427,
      "vidia": 3428,
      "outdoor": 3429,
      "arterly": 3430,
      "ury": 3431,
      "apes": 3432,
      "wise": 3433,
      "wifi": 3434,
      "move": 3435,
      "moving": 3436,
      "aband": 3437,
      "neur": 3438,
      "closure": 3439,
      "scare": 3440,
      "scapes": 3441,
      "adjust": 3442,
      "advent": 3443,
      "advanced": 3444,
      "verb": 3445,
      "closed": 3446,
      "symp": 3447,
      "ilar": 3448,
      "nov": 3449,
      "nothing": 3450,
      "cott": 3451,
      "posal": 3452,
      "ami": 3453,
      "felt": 3454,
      "cture": 3455,
      "wed": 3456,
      "prote": 3457,
      "promotion": 3458,
      "procra": 3459,
      "protocol": 3460,
      "proposal": 3461,
      "heat": 3462,
      "heart": 3463,
      "apple": 3464,
      "ette": 3465,
      "extra": 3466,
      "exam": 3467,
      "exter": 3468,
      "exact": 3469,
      "except": 3470,
      "fair": 3471,
      "faces": 3472,
      "fauce": 3473,
      "farewell": 3474,
      "logout": 3475,
      "logging": 3476,
      "leaves": 3477,
      "league": 3478,
      "cony": 3479,
      "condit": 3480,
      "contest": 3481,
      "construct": 3482,
      "ason": 3483,
      "asive": 3484,
      "asked": 3485,
      "focu": 3486,
      "quarterly": 3487,
      "ently": 3488,
      "entry": 3489,
      "entries": 3490,
      "area": 3491,
      "dess": 3492,
      "fier": 3493,
      "pewdi": 3494,
      "suggest": 3495,
      "suasive": 3496,
      "dire": 3497,
      "dialo": 3498,
      "boost": 3499,
      "workflow": 3500,
      "bol": 3501,
      "lineup": 3502,
      "offer": 3503,
      "checking": 3504,
      "checkup": 3505,
      "checklist": 3506,
      "brush": 3507,
      "shutter": 3508,
      "phys": 3509,
      "ulation": 3510,
      "musical": 3511,
      "topic": 3512,
      "topics": 3513,
      "base": 3514,
      "bathroom": 3515,
      "tiful": 3516,
      "curb": 3517,
      "liked": 3518,
      "guard": 3519,
      "tracking": 3520,
      "mins": 3521,
      "icker": 3522,
      "graff": 3523,
      "bubble": 3524,
      "buddy": 3525,
      "imonial": 3526,
      "backs": 3527,
      "backend": 3528,
      "epie": 3529,
      "persuasive": 3530,
      "sailing": 3531,
      "serious": 3532,
      "premi": 3533,
      "marvel": 3534,
      "authent": 3535,
      "overnight": 3536,
      "overwhel": 3537,
      "spell": 3538,
      "speaking": 3539,
      "currently": 3540,
      "mony": 3541,
      "essay": 3542,
      "ska": 3543,
      "skits": 3544,
      "stormy": 3545,
      "storms": 3546,
      "sunscreen": 3547,
      "cliff": 3548,
      "survey": 3549,
      "contin": 3550,
      "traveling": 3551,
      "travelers": 3552,
      "anywhere": 3553,
      "small": 3554,
      "rings": 3555,
      "umble": 3556,
      "cling": 3557,
      "clarity": 3558,
      "calibr": 3559,
      "calligraphy": 3560,
      "homemade": 3561,
      "chilly": 3562,
      "chillhop": 3563,
      "chillwave": 3564,
      "workouts": 3565,
      "holes": 3566,
      "hotel": 3567,
      "solos": 3568,
      "scheduler": 3569,
      "tune": 3570,
      "mornings": 3571,
      "nail": 3572,
      "picnic": 3573,
      "bottle": 3574,
      "princess": 3575,
      "Style": 3576,
      "gypt": 3577,
      "streaming": 3578,
      "singer": 3579,
      "value": 3580,
      "valorant": 3581,
      "dragons": 3582,
      "Remix": 3583,
      "dawn": 3584,
      "nuke": 3585,
      "material": 3586,
      "vocal": 3587,
      "voices": 3588,
      "temple": 3589,
      "favorites": 3590,
      "jot": 3591,
      "sleeping": 3592,
      "dreams": 3593,
      "dreamscape": 3594,
      "dancehall": 3595,
      "spring": 3596,
      "flower": 3597,
      "storytell": 3598,
      "blink": 3599,
      "blurb": 3600,
      "issance": 3601,
      "notice": 3602,
      "busters": 3603,
      "waste": 3604,
      "instance": 3605,
      "membership": 3606,
      "animations": 3607,
      "latency": 3608,
      "used": 3609,
      "smarter": 3610,
      "smartphone": 3611,
      "photos": 3612,
      "friendship": 3613,
      "balanced": 3614,
      "balcony": 3615,
      "signs": 3616,
      "chatty": 3617,
      "visuals": 3618,
      "moody": 3619,
      "filled": 3620,
      "tasks": 3621,
      "written": 3622,
      "relaxation": 3623,
      "resolution": 3624,
      "ouncing": 3625,
      "warn": 3626,
      "invent": 3627,
      "invite": 3628,
      "testimonial": 3629,
      "moonlight": 3630,
      "events": 3631,
      "electronica": 3632,
      "flavor": 3633,
      "support": 3634,
      "supplies": 3635,
      "silhou": 3636,
      "tallest": 3637,
      "merma": 3638,
      "phonk": 3639,
      "safely": 3640,
      "typed": 3641,
      "fects": 3642,
      "treehouse": 3643,
      "freeze": 3644,
      "avai": 3645,
      "micro": 3646,
      "renewal": 3647,
      "renewable": 3648,
      "speedrun": 3649,
      "dden": 3650,
      "reflect": 3651,
      "weirdest": 3652,
      "automation": 3653,
      "grocery": 3654,
      "personality": 3655,
      "improvement": 3656,
      "casually": 3657,
      "synthpop": 3658,
      "eye": 3659,
      "community": 3660,
      "tweets": 3661,
      "cameras": 3662,
      "Engl": 3663,
      "annual": 3664,
      "annivers": 3665,
      "entertain": 3666,
      "passport": 3667,
      "destination": 3668,
      "Indian": 3669,
      "univers": 3670,
      "unique": 3671,
      "channels": 3672,
      "exploring": 3673,
      "minimalism": 3674,
      "AQI": 3675,
      "blooming": 3676,
      "benefit": 3677,
      "effects": 3678,
      "giant": 3679,
      "genius": 3680,
      "vault": 3681,
      "vacation": 3682,
      "woods": 3683,
      "wildflowers": 3684,
      "addon": 3685,
      "foggy": 3686,
      "curtains": 3687,
      "breathe": 3688,
      "breaking": 3689,
      "course": 3690,
      "harbor": 3691,
      "license": 3692,
      "sized": 3693,
      "turtle": 3694,
      "secure": 3695,
      "define": 3696,
      "bossa": 3697,
      "ASAP": 3698,
      "witty": 3699,
      "chartbusters": 3700,
      "conversations": 3701,
      "cartoons": 3702,
      "secretly": 3703,
      "restaurants": 3704,
      "USB": 3705,
      "culture": 3706,
      "ethics": 3707,
      "gadget": 3708,
      "growing": 3709,
      "punchy": 3710,
      "vanish": 3711,
      "scenes": 3712,
      "pasta": 3713,
      "pollen": 3714,
      "existence": 3715,
      "waterfalls": 3716,
      "tricks": 3717,
      "registry": 3718,
      "registration": 3719,
      "filters": 3720,
      "transformation": 3721,
      "New": 3722,
      "Throw": 3723,
      "Thurs": 3724,
      "World": 3725,
      "circus": 3726,
      "swap": 3727,
      "swift": 3728,
      "swimming": 3729,
      "touchpad": 3730,
      "inspirational": 3731,
      "errors": 3732,
      "laws": 3733,
      "rooms": 3734,
      "roots": 3735,
      "operations": 3736,
      "wellness": 3737,
      "taxes": 3738,
      "warnings": 3739,
      "explorer": 3740,
      "Arrange": 3741,
      "Nuke": 3742,
      "brakes": 3743,
      "crowd": 3744,
      "dancing": 3745,
      "impress": 3746,
      "rising": 3747,
      "trying": 3748,
      "information": 3749,
      "respons": 3750,
      "alley": 3751,
      "artist": 3752,
      "uploads": 3753,
      "vehicles": 3754,
      "whale": 3755,
      "keyboard": 3756,
      "welcome": 3757,
      "mushrooms": 3758,
      "crackin": 3759,
      "flashbacks": 3760,
      "galaxy": 3761,
      "public": 3762,
      "annoying": 3763,
      "COVID": 3764,
      "DNS": 3765,
      "brief": 3766,
      "gallery": 3767,
      "judging": 3768,
      "money": 3769,
      "spoken": 3770,
      "target": 3771,
      "relativity": 3772,
      "attention": 3773,
      "thesis": 3774,
      "statement": 3775,
      "arguments": 3776,
      "engagement": 3777,
      "decide": 3778,
      "haircut": 3779,
      "percentage": 3780,
      "recycling": 3781,
      "completely": 3782,
      "comparisons": 3783,
      "hobby": 3784,
      "holding": 3785,
      "lanterns": 3786,
      "integrity": 3787,
      "snippet": 3788,
      "professional": 3789,
      "vaccination": 3790,
      "development": 3791,
      "volcano": 3792,
      "philosophy": 3793,
      "Assam": 3794,
      "Cancel": 3795,
      "EUR": 3796,
      "Fetch": 3797,
      "London": 3798,
      "Marvel": 3799,
      "Trash": 3800,
      "awareness": 3801,
      "burnout": 3802,
      "hoodie": 3803,
      "powered": 3804,
      "tongue": 3805,
      "wolf": 3806,
      "instead": 3807,
      "refund": 3808,
      "chasing": 3809,
      "beautiful": 3810,
      "belongs": 3811,
      "beauty": 3812,
      "ignore": 3813,
      "abandoned": 3814,
      "adventure": 3815,
      "cottage": 3816,
      "procrastin": 3817,
      "external": 3818,
      "fairy": 3819,
      "faucet": 3820,
      "focused": 3821,
      "pewdiepie": 3822,
      "graffiti": 3823,
      "overwhelmed": 3824,
      "silhouette": 3825,
      "availa": 3826,
      "English": 3827,
      "anniversary": 3828,
      "Thursday": 3829,
      "00": 3830,
      "00s": 3831,
      "18": 3832,
      "3PM": 3833,
      "40": 3834,
      "50s": 3835,
      "500": 3836,
      "84": 3837,
      "80s": 3838,
      "90": 3839,
      "Ad": 3840,
      "Al": 3841,
      "Ap": 3842,
      "As": 3843,
      "And": 3844,
      "Alan": 3845,
      "Amazon": 3846,
      "Alex": 3847,
      "Bat": 3848,
      "Bal": 3849,
      "Brobot": 3850,
      "Cl": 3851,
      "Co": 3852,
      "Cup": 3853,
      "Col": 3854,
      "Clear": 3855,
      "Crank": 3856,
      "DM": 3857,
      "DR": 3858,
      "De": 3859,
      "Day": 3860,
      "Dial": 3861,
      "Dist": 3862,
      "Def": 3863,
      "EM": 3864,
      "EP": 3865,
      "Ever": 3866,
      "Egypt": 3867,
      "Fr": 3868,
      "Father": 3869,
      "Fort": 3870,
      "Gmail": 3871,
      "Ghi": 3872,
      "HA": 3873,
      "HR": 3874,
      "He": 3875,
      "Is": 3876,
      "Imag": 3877,
      "Ja": 3878,
      "Jo": 3879,
      "Jot": 3880,
      "Kick": 3881,
      "LA": 3882,
      "Lay": 3883,
      "Lak": 3884,
      "ML": 3885,
      "Mor": 3886,
      "Mark": 3887,
      "Mock": 3888,
      "Match": 3889,
      "NIS": 3890,
      "ON": 3891,
      "Out": 3892,
      "OTP": 3893,
      "PN": 3894,
      "Po": 3895,
      "Punch": 3896,
      "Pitch": 3897,
      "Pho": 3898,
      "Pie": 3899,
      "Pos": 3900,
      "Patch": 3901,
      "Plot": 3902,
      "Qu": 3903,
      "Ret": 3904,
      "REM": 3905,
      "Sn": 3906,
      "San": 3907,
      "Sli": 3908,
      "Swi": 3909,
      "Schedu": 3910,
      "Sky": 3911,
      "Scul": 3912,
      "Square": 3913,
      "TS": 3914,
      "Ty": 3915,
      "Talk": 3916,
      "Turing": 3917,
      "Taylor": 3918,
      "Up": 3919,
      "Vs": 3920,
      "Vie": 3921,
      "VPN": 3922,
      "We": 3923,
      "Would": 3924,
      "Witch": 3925,
      "Yor": 3926,
      "Zoom": 3927,
      "aes": 3928,
      "aqu": 3929,
      "acks": 3930,
      "awake": 3931,
      "amed": 3932,
      "avoid": 3933,
      "aerial": 3934,
      "bin": 3935,
      "bro": 3936,
      "bli": 3937,
      "big": 3938,
      "bay": 3939,
      "bab": 3940,
      "bland": 3941,
      "bts": 3942,
      "broad": 3943,
      "bends": 3944,
      "bouncing": 3945,
      "cn": 3946,
      "cart": 3947,
      "cri": 3948,
      "cring": 3949,
      "ccer": 3950,
      "cities": 3951,
      "dé": 3952,
      "dust": 3953,
      "dating": 3954,
      "dunk": 3955,
      "ese": 3956,
      "equ": 3957,
      "emp": 3958,
      "eze": 3959,
      "eject": 3960,
      "emer": 3961,
      "eclip": 3962,
      "euro": 3963,
      "ebay": 3964,
      "fer": 3965,
      "fro": 3966,
      "fount": 3967,
      "fted": 3968,
      "flowing": 3969,
      "foun": 3970,
      "fru": 3971,
      "fron": 3972,
      "gth": 3973,
      "gget": 3974,
      "gry": 3975,
      "gmail": 3976,
      "gates": 3977,
      "gpt": 3978,
      "gmen": 3979,
      "hn": 3980,
      "hon": 3981,
      "hut": 3982,
      "hust": 3983,
      "hood": 3984,
      "hover": 3985,
      "hilar": 3986,
      "ith": 3987,
      "ier": 3988,
      "ira": 3989,
      "iries": 3990,
      "jà": 3991,
      "jing": 3992,
      "jest": 3993,
      "japan": 3994,
      "ko": 3995,
      "kat": 3996,
      "kery": 3997,
      "lant": 3998,
      "lone": 3999,
      "lower": 4000,
      "mb": 4001,
      "mal": 4002,
      "mis": 4003,
      "mart": 4004,
      "msc": 4005,
      "mall": 4006,
      "mpo": 4007,
      "mical": 4008,
      "mural": 4009,
      "mune": 4010,
      "mbol": 4011,
      "nin": 4012,
      "nat": 4013,
      "nor": 4014,
      "nite": 4015,
      "nger": 4016,
      "nook": 4017,
      "nfl": 4018,
      "natur": 4019,
      "nvidia": 4020,
      "ngth": 4021,
      "oc": 4022,
      "oon": 4023,
      "olog": 4024,
      "oas": 4025,
      "osa": 4026,
      "omize": 4027,
      "ogies": 4028,
      "pc": 4029,
      "pin": 4030,
      "pat": 4031,
      "pse": 4032,
      "pit": 4033,
      "pand": 4034,
      "pul": 4035,
      "pert": 4036,
      "ples": 4037,
      "pfire": 4038,
      "prou": 4039,
      "prank": 4040,
      "rig": 4041,
      "rong": 4042,
      "rates": 4043,
      "ratch": 4044,
      "rumble": 4045,
      "spl": 4046,
      "spi": 4047,
      "spic": 4048,
      "slan": 4049,
      "slap": 4050,
      "ssed": 4051,
      "spot": 4052,
      "square": 4053,
      "sonder": 4054,
      "tu": 4055,
      "tat": 4056,
      "tation": 4057,
      "tics": 4058,
      "trou": 4059,
      "tling": 4060,
      "uing": 4061,
      "uation": 4062,
      "ught": 4063,
      "udio": 4064,
      "uku": 4065,
      "vu": 4066,
      "vas": 4067,
      "win": 4068,
      "went": 4069,
      "winn": 4070,
      "wrong": 4071,
      "ytics": 4072,
      "zes": 4073,
      "inspe": 4074,
      "input": 4075,
      "inject": 4076,
      "thy": 4077,
      "thood": 4078,
      "thouse": 4079,
      "thie": 4080,
      "thropy": 4081,
      "reme": 4082,
      "resc": 4083,
      "ream": 4084,
      "repe": 4085,
      "recur": 4086,
      "relate": 4087,
      "repre": 4088,
      "restr": 4089,
      "rena": 4090,
      "react": 4091,
      "rewatch": 4092,
      "reless": 4093,
      "remark": 4094,
      "rename": 4095,
      "recharge": 4096,
      "replays": 4097,
      "remixes": 4098,
      "remony": 4099,
      "ats": 4100,
      "ator": 4101,
      "attire": 4102,
      "met": 4103,
      "mete": 4104,
      "thetic": 4105,
      "themed": 4106,
      "themes": 4107,
      "theories": 4108,
      "stan": 4109,
      "stri": 4110,
      "stial": 4111,
      "stran": 4112,
      "stove": 4113,
      "ond": 4114,
      "onun": 4115,
      "onom": 4116,
      "onboard": 4117,
      "onfig": 4118,
      "erup": 4119,
      "eries": 4120,
      "ans": 4121,
      "anx": 4122,
      "ange": 4123,
      "angle": 4124,
      "ancing": 4125,
      "anthropy": 4126,
      "ora": 4127,
      "orbit": 4128,
      "orith": 4129,
      "toms": 4130,
      "tomat": 4131,
      "alright": 4132,
      "aring": 4133,
      "arri": 4134,
      "sew": 4135,
      "sewing": 4136,
      "semble": 4137,
      "enlight": 4138,
      "engine": 4139,
      "encou": 4140,
      "ley": 4141,
      "lele": 4142,
      "leted": 4143,
      "legal": 4144,
      "ited": 4145,
      "itions": 4146,
      "ché": 4147,
      "chil": 4148,
      "chick": 4149,
      "chore": 4150,
      "chapter": 4151,
      "ica": 4152,
      "icons": 4153,
      "icien": 4154,
      "isis": 4155,
      "isometric": 4156,
      "esome": 4157,
      "esports": 4158,
      "loon": 4159,
      "loss": 4160,
      "forward": 4161,
      "laby": 4162,
      "labor": 4163,
      "rages": 4164,
      "ragment": 4165,
      "root": 4166,
      "atever": 4167,
      "ups": 4168,
      "upli": 4169,
      "upside": 4170,
      "lip": 4171,
      "liz": 4172,
      "lion": 4173,
      "liqu": 4174,
      "lift": 4175,
      "lized": 4176,
      "gear": 4177,
      "deb": 4178,
      "dew": 4179,
      "demon": 4180,
      "degre": 4181,
      "deplo": 4182,
      "depot": 4183,
      "decrease": 4184,
      "debug": 4185,
      "younger": 4186,
      "while": 4187,
      "whatever": 4188,
      "shin": 4189,
      "shoo": 4190,
      "shout": 4191,
      "shay": 4192,
      "shir": 4193,
      "keto": 4194,
      "lling": 4195,
      "llar": 4196,
      "llywood": 4197,
      "cker": 4198,
      "ckpit": 4199,
      "uno": 4200,
      "uncle": 4201,
      "unmount": 4202,
      "uninstall": 4203,
      "unmute": 4204,
      "unleash": 4205,
      "tempo": 4206,
      "majest": 4207,
      "utral": 4208,
      "vious": 4209,
      "dose": 4210,
      "dollar": 4211,
      "outlook": 4212,
      "cease": 4213,
      "cells": 4214,
      "ceremony": 4215,
      "artment": 4216,
      "howdy": 4217,
      "apartment": 4218,
      "wireless": 4219,
      "mop": 4220,
      "moons": 4221,
      "motor": 4222,
      "playoff": 4223,
      "android": 4224,
      "ned": 4225,
      "never": 4226,
      "neare": 4227,
      "neutral": 4228,
      "scra": 4229,
      "scoo": 4230,
      "scri": 4231,
      "scrolling": 4232,
      "scratch": 4233,
      "ssup": 4234,
      "ssip": 4235,
      "adul": 4236,
      "admin": 4237,
      "advis": 4238,
      "adult": 4239,
      "advan": 4240,
      "tray": 4241,
      "tradit": 4242,
      "usive": 4243,
      "sets": 4244,
      "vern": 4245,
      "verbo": 4246,
      "symbol": 4247,
      "ils": 4248,
      "illi": 4249,
      "iland": 4250,
      "ility": 4251,
      "ilanthropy": 4252,
      "illegal": 4253,
      "nose": 4254,
      "noir": 4255,
      "nova": 4256,
      "coin": 4257,
      "cockpit": 4258,
      "rich": 4259,
      "riche": 4260,
      "passion": 4261,
      "paci": 4262,
      "pawn": 4263,
      "sted": 4264,
      "steps": 4265,
      "pol": 4266,
      "polit": 4267,
      "polic": 4268,
      "feine": 4269,
      "fective": 4270,
      "ctu": 4271,
      "weak": 4272,
      "provi": 4273,
      "progra": 4274,
      "proverb": 4275,
      "cheer": 4276,
      "cheape": 4277,
      "chemical": 4278,
      "archite": 4279,
      "timeline": 4280,
      "height": 4281,
      "cream": 4282,
      "ustri": 4283,
      "starter": 4284,
      "starting": 4285,
      "appear": 4286,
      "ets": 4287,
      "expi": 4288,
      "excer": 4289,
      "exams": 4290,
      "expert": 4291,
      "fairies": 4292,
      "canvas": 4293,
      "logra": 4294,
      "leaking": 4295,
      "leaving": 4296,
      "lying": 4297,
      "lymp": 4298,
      "conf": 4299,
      "confi": 4300,
      "consu": 4301,
      "convo": 4302,
      "confirm": 4303,
      "convert": 4304,
      "conspi": 4305,
      "antly": 4306,
      "ducks": 4307,
      "energi": 4308,
      "listener": 4309,
      "asleep": 4310,
      "quacks": 4311,
      "shower": 4312,
      "showers": 4313,
      "ents": 4314,
      "entropy": 4315,
      "entrepre": 4316,
      "entangle": 4317,
      "despawn": 4318,
      "peak": 4319,
      "pelling": 4320,
      "suc": 4321,
      "sushi": 4322,
      "diy": 4323,
      "diary": 4324,
      "diets": 4325,
      "drama": 4326,
      "dramatic": 4327,
      "drafted": 4328,
      "both": 4329,
      "boil": 4330,
      "bold": 4331,
      "boiled": 4332,
      "boats": 4333,
      "bollywood": 4334,
      "cafe": 4335,
      "cakes": 4336,
      "causes": 4337,
      "caught": 4338,
      "irs": 4339,
      "mption": 4340,
      "viewed": 4341,
      "having": 4342,
      "hacker": 4343,
      "bruno": 4344,
      "brilli": 4345,
      "looks": 4346,
      "pher": 4347,
      "philanthropy": 4348,
      "ulary": 4349,
      "else": 4350,
      "toppers": 4351,
      "bag": 4352,
      "bait": 4353,
      "bakery": 4354,
      "openings": 4355,
      "icebreak": 4356,
      "ongo": 4357,
      "plus": 4358,
      "mansion": 4359,
      "nings": 4360,
      "discussion": 4361,
      "discord": 4362,
      "disappear": 4363,
      "lately": 4364,
      "ards": 4365,
      "guy": 4366,
      "iplier": 4367,
      "items": 4368,
      "porate": 4369,
      "god": 4370,
      "goes": 4371,
      "gossip": 4372,
      "songwriter": 4373,
      "forever": 4374,
      "designs": 4375,
      "buds": 4376,
      "cution": 4377,
      "cuits": 4378,
      "immune": 4379,
      "backflip": 4380,
      "realistic": 4381,
      "letes": 4382,
      "percussion": 4383,
      "permissions": 4384,
      "soundscape": 4385,
      "soundscapes": 4386,
      "oodle": 4387,
      "sai": 4388,
      "same": 4389,
      "stress": 4390,
      "streamed": 4391,
      "strength": 4392,
      "prefer": 4393,
      "previous": 4394,
      "marked": 4395,
      "marath": 4396,
      "bookstore": 4397,
      "bookshel": 4398,
      "bookmarked": 4399,
      "interaction": 4400,
      "auction": 4401,
      "augmen": 4402,
      "drops": 4403,
      "dropping": 4404,
      "rowave": 4405,
      "runes": 4406,
      "screenshot": 4407,
      "carbon": 4408,
      "evolution": 4409,
      "funding": 4410,
      "function": 4411,
      "funky": 4412,
      "monster": 4413,
      "monsoon": 4414,
      "monolog": 4415,
      "monica": 4416,
      "powerdown": 4417,
      "powerful": 4418,
      "powershell": 4419,
      "100": 4420,
      "storage": 4421,
      "bread": 4422,
      "sunlight": 4423,
      "sunny": 4424,
      "sunglasses": 4425,
      "fireplace": 4426,
      "fireflies": 4427,
      "cliché": 4428,
      "contact": 4429,
      "launcher": 4430,
      "launching": 4431,
      "anyone": 4432,
      "smalle": 4433,
      "comment": 4434,
      "commer": 4435,
      "compelling": 4436,
      "compet": 4437,
      "completes": 4438,
      "rainforest": 4439,
      "afternoon": 4440,
      "clutter": 4441,
      "clusive": 4442,
      "dren": 4443,
      "elev": 4444,
      "element": 4445,
      "election": 4446,
      "documentation": 4447,
      "ffer": 4448,
      "knowing": 4449,
      "underrated": 4450,
      "sketches": 4451,
      "chillout": 4452,
      "hots": 4453,
      "hologra": 4454,
      "highway": 4455,
      "solo": 4456,
      "soap": 4457,
      "soccer": 4458,
      "soaring": 4459,
      "strong": 4460,
      "headphone": 4461,
      "headphones": 4462,
      "hug": 4463,
      "sidebar": 4464,
      "reader": 4465,
      "readers": 4466,
      "scheduled": 4467,
      "talker": 4468,
      "taste": 4469,
      "tavern": 4470,
      "loader": 4471,
      "pronun": 4472,
      "begin": 4473,
      "plans": 4474,
      "planes": 4475,
      "electro": 4476,
      "jazzy": 4477,
      "Stru": 4478,
      "Studio": 4479,
      "colony": 4480,
      "earnings": 4481,
      "earbuds": 4482,
      "singles": 4483,
      "robotics": 4484,
      "helping": 4485,
      "facebook": 4486,
      "faceless": 4487,
      "breakthroughs": 4488,
      "Reboot": 4489,
      "Rethink": 4490,
      "Reword": 4491,
      "Reframe": 4492,
      "comet": 4493,
      "comedies": 4494,
      "freel": 4495,
      "nuff": 4496,
      "nugget": 4497,
      "tru": 4498,
      "trust": 4499,
      "changelog": 4500,
      "drivers": 4501,
      "matter": 4502,
      "lockdown": 4503,
      "hike": 4504,
      "hidden": 4505,
      "pane": 4506,
      "voke": 4507,
      "vocab": 4508,
      "tempor": 4509,
      "motivated": 4510,
      "worldwide": 4511,
      "graphics": 4512,
      "jogging": 4513,
      "lingo": 4514,
      "dreamlike": 4515,
      "batch": 4516,
      "battling": 4517,
      "subway": 4518,
      "subject": 4519,
      "subscri": 4520,
      "mula": 4521,
      "partner": 4522,
      "spill": 4523,
      "spice": 4524,
      "sphere": 4525,
      "netflix": 4526,
      "magni": 4527,
      "machines": 4528,
      "blend": 4529,
      "wrapping": 4530,
      "often": 4531,
      "idle": 4532,
      "walkthrough": 4533,
      "standing": 4534,
      "standards": 4535,
      "notch": 4536,
      "switching": 4537,
      "waves": 4538,
      "wassup": 4539,
      "instantly": 4540,
      "animation": 4541,
      "forming": 4542,
      "healthcare": 4543,
      "clearing": 4544,
      "bleshoot": 4545,
      "latch": 4546,
      "wordle": 4547,
      "activation": 4548,
      "activity": 4549,
      "photoshop": 4550,
      "photosyn": 4551,
      "Despaci": 4552,
      "balance": 4553,
      "balloon": 4554,
      "signing": 4555,
      "chatgpt": 4556,
      "gestures": 4557,
      "whole": 4558,
      "appointments": 4559,
      "Inject": 4560,
      "Invoke": 4561,
      "bangers": 4562,
      "moods": 4563,
      "pengu": 4564,
      "saying": 4565,
      "regular": 4566,
      "introduce": 4567,
      "brainstorm": 4568,
      "ciation": 4569,
      "hitting": 4570,
      "cloudy": 4571,
      "languages": 4572,
      "networks": 4573,
      "intel": 4574,
      "means": 4575,
      "shops": 4576,
      "quickly": 4577,
      "brands": 4578,
      "coffeehouse": 4579,
      "woke": 4580,
      "wheel": 4581,
      "whether": 4582,
      "batteries": 4583,
      "corporate": 4584,
      "training": 4585,
      "weekends": 4586,
      "tweak": 4587,
      "website": 4588,
      "products": 4589,
      "crypt": 4590,
      "crafts": 4591,
      "drum": 4592,
      "drinking": 4593,
      "entire": 4594,
      "tests": 4595,
      "prompts": 4596,
      "diagnose": 4597,
      "assistants": 4598,
      "flare": 4599,
      "snakes": 4600,
      "mers": 4601,
      "loved": 4602,
      "installing": 4603,
      "liter": 4604,
      "lities": 4605,
      "typing": 4606,
      "insight": 4607,
      "retrieve": 4608,
      "ictions": 4609,
      "following": 4610,
      "voiceover": 4611,
      "astero": 4612,
      "microwave": 4613,
      "papers": 4614,
      "rhy": 4615,
      "medication": 4616,
      "messes": 4617,
      "speeding": 4618,
      "summaries": 4619,
      "Wipe": 4620,
      "autonom": 4621,
      "ddle": 4622,
      "roads": 4623,
      "mystery": 4624,
      "conceptual": 4625,
      "automatic": 4626,
      "laptops": 4627,
      "improvements": 4628,
      "casual": 4629,
      "datab": 4630,
      "handstand": 4631,
      "handmade": 4632,
      "feedback": 4633,
      "concerts": 4634,
      "oceans": 4635,
      "CPR": 4636,
      "eyes": 4637,
      "indexing": 4638,
      "clocking": 4639,
      "crisis": 4640,
      "gentle": 4641,
      "ramen": 4642,
      "execution": 4643,
      "submitting": 4644,
      "cards": 4645,
      "longest": 4646,
      "plot": 4647,
      "twilight": 4648,
      "twister": 4649,
      "mythic": 4650,
      "matches": 4651,
      "minimalistic": 4652,
      "blood": 4653,
      "bility": 4654,
      "bulleted": 4655,
      "campfire": 4656,
      "custom": 4657,
      "effective": 4658,
      "genre": 4659,
      "linux": 4660,
      "situation": 4661,
      "snowing": 4662,
      "wishes": 4663,
      "releases": 4664,
      "melody": 4665,
      "decorate": 4666,
      "ctors": 4667,
      "lyric": 4668,
      "breath": 4669,
      "breathing": 4670,
      "spirit": 4671,
      "parade": 4672,
      "ghosts": 4673,
      "ghostly": 4674,
      "Summon": 4675,
      "Unload": 4676,
      "Unmute": 4677,
      "harmonica": 4678,
      "others": 4679,
      "rules": 4680,
      "turning": 4681,
      "turtles": 4682,
      "utilities": 4683,
      "analogies": 4684,
      "analytics": 4685,
      "algorith": 4686,
      "deficien": 4687,
      "defragment": 4688,
      "deliver": 4689,
      "potato": 4690,
      "inspire": 4691,
      "inspires": 4692,
      "Display": 4693,
      "Dismiss": 4694,
      "Discord": 4695,
      "Spice": 4696,
      "Times": 4697,
      "bundle": 4698,
      "candles": 4699,
      "ibilities": 4700,
      "salsa": 4701,
      "slime": 4702,
      "smoky": 4703,
      "trial": 4704,
      "celestial": 4705,
      "optimi": 4706,
      "colder": 4707,
      "creatures": 4708,
      "markiplier": 4709,
      "authors": 4710,
      "strategy": 4711,
      "fluently": 4712,
      "invention": 4713,
      "inventions": 4714,
      "Chrome": 4715,
      "hype": 4716,
      "hooks": 4717,
      "lord": 4718,
      "therapist": 4719,
      "arium": 4720,
      "seconds": 4721,
      "choir": 4722,
      "loops": 4723,
      "detectors": 4724,
      "creativity": 4725,
      "existential": 4726,
      "exercises": 4727,
      "difference": 4728,
      "caffeine": 4729,
      "surprised": 4730,
      "filtering": 4731,
      "transformations": 4732,
      "customers": 4733,
      "apocalypse": 4734,
      "FAQs": 4735,
      "Need": 4736,
      "Work": 4737,
      "circuits": 4738,
      "fanfiction": 4739,
      "louder": 4740,
      "multip": 4741,
      "patches": 4742,
      "inspiring": 4743,
      "alternate": 4744,
      "legs": 4745,
      "legend": 4746,
      "childhood": 4747,
      "issue": 4748,
      "sheep": 4749,
      "shadows": 4750,
      "scrapbook": 4751,
      "adapters": 4752,
      "golden": 4753,
      "built": 4754,
      "watercolors": 4755,
      "humorous": 4756,
      "tagline": 4757,
      "taglines": 4758,
      "taxi": 4759,
      "collage": 4760,
      "collabor": 4761,
      "washing": 4762,
      "resources": 4763,
      "crashing": 4764,
      "happened": 4765,
      "celebrity": 4766,
      "1950s": 4767,
      "1984": 4768,
      "GPT": 4769,
      "GPU": 4770,
      "IDE": 4771,
      "Japanese": 4772,
      "Motown": 4773,
      "Nudge": 4774,
      "athlete": 4775,
      "ashes": 4776,
      "braid": 4777,
      "cross": 4778,
      "croche": 4779,
      "hills": 4780,
      "knitting": 4781,
      "risk": 4782,
      "slowly": 4783,
      "ttling": 4784,
      "tours": 4785,
      "walking": 4786,
      "walmart": 4787,
      "artistic": 4788,
      "vehicle": 4789,
      "whales": 4790,
      "contrast": 4791,
      "conclusion": 4792,
      "conclude": 4793,
      "duckgo": 4794,
      "duckduckgo": 4795,
      "surfing": 4796,
      "finalize": 4797,
      "mushroom": 4798,
      "introduction": 4799,
      "introducing": 4800,
      "galaxies": 4801,
      "recordings": 4802,
      "published": 4803,
      "Convert": 4804,
      "Note": 4805,
      "Nobel": 4806,
      "bonsai": 4807,
      "binge": 4808,
      "diner": 4809,
      "dinosa": 4810,
      "habit": 4811,
      "habits": 4812,
      "sooo": 4813,
      "soothing": 4814,
      "simulation": 4815,
      "origin": 4816,
      "origami": 4817,
      "module": 4818,
      "modules": 4819,
      "disturb": 4820,
      "skateboarding": 4821,
      "clickbait": 4822,
      "butterflies": 4823,
      "jellyfish": 4824,
      "birdhouse": 4825,
      "typewriter": 4826,
      "reflections": 4827,
      "creators": 4828,
      "multiverse": 4829,
      "12345": 4830,
      "eggs": 4831,
      "girlfriends": 4832,
      "vaporwave": 4833,
      "investment": 4834,
      "recommendation": 4835,
      "consciousness": 4836,
      "Break": 4837,
      "Broadway": 4838,
      "Celtic": 4839,
      "Prize": 4840,
      "Riya": 4841,
      "Supreme": 4842,
      "awesome": 4843,
      "critical": 4844,
      "dunes": 4845,
      "dental": 4846,
      "farmers": 4847,
      "founder": 4848,
      "global": 4849,
      "hang": 4850,
      "hunt": 4851,
      "hurt": 4852,
      "ization": 4853,
      "ikea": 4854,
      "lullaby": 4855,
      "mistakes": 4856,
      "pills": 4857,
      "slogan": 4858,
      "throttling": 4859,
      "atmosphere": 4860,
      "mechanical": 4861,
      "stylized": 4862,
      "answer": 4863,
      "rooftop": 4864,
      "lighthouse": 4865,
      "mastering": 4866,
      "neurons": 4867,
      "symptoms": 4868,
      "novation": 4869,
      "protect": 4870,
      "promotional": 4871,
      "heartfelt": 4872,
      "condition": 4873,
      "dessert": 4874,
      "direct": 4875,
      "dialog": 4876,
      "physics": 4877,
      "guarding": 4878,
      "premier": 4879,
      "authentic": 4880,
      "continent": 4881,
      "calibration": 4882,
      "storytelling": 4883,
      "blinks": 4884,
      "inventor": 4885,
      "mermaid": 4886,
      "reflecting": 4887,
      "universities": 4888,
      "responsibilities": 4889,
      "alleyway": 4890,
      "artists": 4891,
      "cottagecore": 4892,
      "procrastinating": 4893,
      "availability": 4894,
      "Android": 4895,
      "Alexa": 4896,
      "Batman": 4897,
      "Balance": 4898,
      "Click": 4899,
      "Collapse": 4900,
      "Defender": 4901,
      "France": 4902,
      "Ghibli": 4903,
      "Imagine": 4904,
      "John": 4905,
      "Lakers": 4906,
      "NISHA": 4907,
      "Outline": 4908,
      "Point": 4909,
      "Photo": 4910,
      "Position": 4911,
      "Retrieve": 4912,
      "Slide": 4913,
      "Swift": 4914,
      "Schedule": 4915,
      "Sculpt": 4916,
      "Type": 4917,
      "View": 4918,
      "Weave": 4919,
      "Witcher": 4920,
      "York": 4921,
      "aesthetic": 4922,
      "aquarium": 4923,
      "baby": 4924,
      "broadcast": 4925,
      "cnn": 4926,
      "cartwheel": 4927,
      "cringe": 4928,
      "déjà": 4929,
      "empty": 4930,
      "emergency": 4931,
      "eclipse": 4932,
      "fountain": 4933,
      "founded": 4934,
      "frontend": 4935,
      "honks": 4936,
      "hustle": 4937,
      "hilarious": 4938,
      "koi": 4939,
      "lonely": 4940,
      "msconfig": 4941,
      "ninja": 4942,
      "natural": 4943,
      "naturally": 4944,
      "oasis": 4945,
      "pattern": 4946,
      "panda": 4947,
      "proud": 4948,
      "split": 4949,
      "spicy": 4950,
      "slang": 4951,
      "tattoo": 4952,
      "troubleshoot": 4953,
      "ukulele": 4954,
      "winners": 4955,
      "thief": 4956,
      "rescue": 4957,
      "restrictions": 4958,
      "renaissance": 4959,
      "meteor": 4960,
      "stanch": 4961,
      "onboarding": 4962,
      "orbiting": 4963,
      "tomatoes": 4964,
      "enlighten": 4965,
      "encourages": 4966,
      "children": 4967,
      "chicken": 4968,
      "laboratory": 4969,
      "uplifting": 4970,
      "liquid": 4971,
      "lifts": 4972,
      "deploy": 4973,
      "shirt": 4974,
      "majestic": 4975,
      "motorcycle": 4976,
      "playoffs": 4977,
      "nearest": 4978,
      "adulthood": 4979,
      "advances": 4980,
      "verbose": 4981,
      "richest": 4982,
      "political": 4983,
      "policy": 4984,
      "programs": 4985,
      "cheapest": 4986,
      "excerpt": 4987,
      "lympics": 4988,
      "consumption": 4989,
      "conspiracy": 4990,
      "energizes": 4991,
      "entanglement": 4992,
      "icebreaker": 4993,
      "marathon": 4994,
      "augmented": 4995,
      "smallest": 4996,
      "commerce": 4997,
      "hotspot": 4998,
      "pronunciation": 4999,
      "Structure": 5000,
      "vocabulary": 5001,
      "subscribers": 5002,
      "magnifier": 5003,
      "photosynthesis": 5004,
      "Despacito": 5005,
      "brainstorming": 5006,
      "asteroid": 5007,
      "autonomous": 5008,
      "deficiency": 5009,
      "dinosaur": 5010,
      "01": 5011,
      "14": 5012,
      "1st": 5013,
      "22": 5014,
      "24": 5015,
      "36": 5016,
      "3d": 5017,
      "4PM": 5018,
      "5th": 5019,
      "5PM": 5020,
      "6PM": 5021,
      "70": 5022,
      "72": 5023,
      "95": 5024,
      "98": 5025,
      "99": 5026,
      "AA": 5027,
      "AF": 5028,
      "AR": 5029,
      "AW": 5030,
      "At": 5031,
      "Ara": 5032,
      "Aman": 5033,
      "Austr": 5034,
      "Apr": 5035,
      "Any": 5036,
      "Amit": 5037,
      "Afro": 5038,
      "Austri": 5039,
      "BS": 5040,
      "Be": 5041,
      "Br": 5042,
      "Bit": 5043,
      "Bes": 5044,
      "Bra": 5045,
      "Big": 5046,
      "Boo": 5047,
      "Brain": 5048,
      "Book": 5049,
      "B123": 5050,
      "Back": 5051,
      "BTS": 5052,
      "Bhut": 5053,
      "B01": 5054,
      "CM": 5055,
      "CN": 5056,
      "Cut": 5057,
      "Come": 5058,
      "Cust": 5059,
      "Cent": 5060,
      "Chor": 5061,
      "Clar": 5062,
      "Cari": 5063,
      "Clip": 5064,
      "DF": 5065,
      "DH": 5066,
      "DS": 5067,
      "Dj": 5068,
      "Der": 5069,
      "Dar": 5070,
      "Dri": 5071,
      "Dha": 5072,
      "Done": 5073,
      "Dick": 5074,
      "Dele": 5075,
      "Die": 5076,
      "Deve": 5077,
      "DAQ": 5078,
      "Dream": 5079,
      "Doodle": 5080,
      "DB01": 5081,
      "EF": 5082,
      "Em": 5083,
      "Et": 5084,
      "Edit": 5085,
      "Ethere": 5086,
      "Fo": 5087,
      "Fs": 5088,
      "Fin": 5089,
      "Fre": 5090,
      "Fer": 5091,
      "Fla": 5092,
      "Fate": 5093,
      "Fab": 5094,
      "Four": 5095,
      "Fran": 5096,
      "Flow": 5097,
      "Face": 5098,
      "Fold": 5099,
      "Fuel": 5100,
      "Fah": 5101,
      "Flip": 5102,
      "GI": 5103,
      "GM": 5104,
      "GR": 5105,
      "Ge": 5106,
      "Go": 5107,
      "Gs": 5108,
      "Gre": 5109,
      "Gra": 5110,
      "GUI": 5111,
      "Gimme": 5112,
      "Han": 5113,
      "Hand": 5114,
      "Ham": 5115,
      "Hain": 5116,
      "Hol": 5117,
      "High": 5118,
      "Hub": 5119,
      "Hack": 5120,
      "Hob": 5121,
      "HDR": 5122,
      "Hoon": 5123,
      "IN": 5124,
      "IR": 5125,
      "If": 5126,
      "It": 5127,
      "Isa": 5128,
      "Iron": 5129,
      "Jac": 5130,
      "Jav": 5131,
      "Jason": 5132,
      "Jira": 5133,
      "JAR": 5134,
      "KR": 5135,
      "Ke": 5136,
      "Kan": 5137,
      "King": 5138,
      "Kno": 5139,
      "Kol": 5140,
      "LR": 5141,
      "Lis": 5142,
      "Land": 5143,
      "Line": 5144,
      "Lower": 5145,
      "Link": 5146,
      "Last": 5147,
      "Like": 5148,
      "Me": 5149,
      "Mi": 5150,
      "Min": 5151,
      "Man": 5152,
      "Map": 5153,
      "Mand": 5154,
      "Ment": 5155,
      "Main": 5156,
      "Mum": 5157,
      "Mold": 5158,
      "Mute": 5159,
      "Max": 5160,
      "Mash": 5161,
      "Mongo": 5162,
      "NY": 5163,
      "Nar": 5164,
      "Night": 5165,
      "Not": 5166,
      "NPC": 5167,
      "Nile": 5168,
      "NAS": 5169,
      "NTP": 5170,
      "Nvidia": 5171,
      "Nora": 5172,
      "OI": 5173,
      "Osc": 5174,
      "Ody": 5175,
      "OVs": 5176,
      "Offer": 5177,
      "Olympics": 5178,
      "OBS": 5179,
      "OKR": 5180,
      "Pe": 5181,
      "Pre": 5182,
      "Ping": 5183,
      "Par": 5184,
      "Pen": 5185,
      "Pun": 5186,
      "Pers": 5187,
      "Pick": 5188,
      "Pol": 5189,
      "Pak": 5190,
      "Pair": 5191,
      "Plan": 5192,
      "Park": 5193,
      "Pinterest": 5194,
      "Pipe": 5195,
      "Phone": 5196,
      "Pride": 5197,
      "Press": 5198,
      "PDF": 5199,
      "PGs": 5200,
      "POVs": 5201,
      "Q2": 5202,
      "QL": 5203,
      "QR": 5204,
      "Ro": 5205,
      "Ren": 5206,
      "Ris": 5207,
      "Res": 5208,
      "Rate": 5209,
      "Red": 5210,
      "Render": 5211,
      "Rah": 5212,
      "RPGs": 5213,
      "Sa": 5214,
      "Si": 5215,
      "Su": 5216,
      "Sat": 5217,
      "Sing": 5218,
      "Sch": 5219,
      "Sla": 5220,
      "Say": 5221,
      "Sha": 5222,
      "Stop": 5223,
      "Shi": 5224,
      "Sque": 5225,
      "Scand": 5226,
      "Sense": 5227,
      "Swipe": 5228,
      "Sara": 5229,
      "Shed": 5230,
      "Snuff": 5231,
      "SQL": 5232,
      "TL": 5233,
      "Tu": 5234,
      "Tan": 5235,
      "Ten": 5236,
      "Tap": 5237,
      "Twi": 5238,
      "Top": 5239,
      "Tri": 5240,
      "Tex": 5241,
      "Tha": 5242,
      "Tele": 5243,
      "Tom": 5244,
      "Tweak": 5245,
      "UB": 5246,
      "Ubun": 5247,
      "UEF": 5248,
      "VS": 5249,
      "Vi": 5250,
      "Ven": 5251,
      "VIS": 5252,
      "Wim": 5253,
      "Warm": 5254,
      "XY": 5255,
      "Zone": 5256,
      "Zero": 5257,
      "ZOI": 5258,
      "aS": 5259,
      "ama": 5260,
      "ado": 5261,
      "awe": 5262,
      "aca": 5263,
      "agle": 5264,
      "ahead": 5265,
      "aways": 5266,
      "aging": 5267,
      "award": 5268,
      "aSc": 5269,
      "aissance": 5270,
      "ailand": 5271,
      "bs": 5272,
      "bow": 5273,
      "bic": 5274,
      "bes": 5275,
      "bind": 5276,
      "bbe": 5277,
      "bart": 5278,
      "bur": 5279,
      "bare": 5280,
      "bone": 5281,
      "bard": 5282,
      "butor": 5283,
      "bies": 5284,
      "bite": 5285,
      "bits": 5286,
      "blow": 5287,
      "bunk": 5288,
      "bie": 5289,
      "blan": 5290,
      "bling": 5291,
      "bark": 5292,
      "bbl": 5293,
      "blowing": 5294,
      "broom": 5295,
      "brid": 5296,
      "bowl": 5297,
      "bicy": 5298,
      "bury": 5299,
      "cs": 5300,
      "cow": 5301,
      "cis": 5302,
      "cti": 5303,
      "cate": 5304,
      "cip": 5305,
      "cif": 5306,
      "cid": 5307,
      "cory": 5308,
      "cult": 5309,
      "couch": 5310,
      "cense": 5311,
      "cdon": 5312,
      "cited": 5313,
      "df": 5314,
      "dth": 5315,
      "dor": 5316,
      "dil": 5317,
      "ders": 5318,
      "dence": 5319,
      "drip": 5320,
      "dates": 5321,
      "douse": 5322,
      "dated": 5323,
      "dges": 5324,
      "dbit": 5325,
      "dough": 5326,
      "dense": 5327,
      "doodle": 5328,
      "dPress": 5329,
      "emo": 5330,
      "econ": 5331,
      "eight": 5332,
      "ebook": 5333,
      "emon": 5334,
      "each": 5335,
      "eous": 5336,
      "ezy": 5337,
      "ebooks": 5338,
      "eres": 5339,
      "effic": 5340,
      "emissions": 5341,
      "eah": 5342,
      "egypt": 5343,
      "eBook": 5344,
      "eagle": 5345,
      "f1": 5346,
      "fc": 5347,
      "fs": 5348,
      "fon": 5349,
      "fto": 5350,
      "fing": 5351,
      "fra": 5352,
      "fate": 5353,
      "fte": 5354,
      "fur": 5355,
      "fad": 5356,
      "fill": 5357,
      "fter": 5358,
      "fight": 5359,
      "furn": 5360,
      "fry": 5361,
      "fence": 5362,
      "faris": 5363,
      "flex": 5364,
      "gn": 5365,
      "gig": 5366,
      "gut": 5367,
      "gap": 5368,
      "gener": 5369,
      "glow": 5370,
      "gize": 5371,
      "gments": 5372,
      "gani": 5373,
      "grid": 5374,
      "hing": 5375,
      "his": 5376,
      "hra": 5377,
      "hint": 5378,
      "ham": 5379,
      "hul": 5380,
      "hical": 5381,
      "honic": 5382,
      "hwash": 5383,
      "ime": 5384,
      "ias": 5385,
      "iest": 5386,
      "iach": 5387,
      "ives": 5388,
      "imize": 5389,
      "ized": 5390,
      "iku": 5391,
      "iently": 5392,
      "ijing": 5393,
      "iPhone": 5394,
      "jis": 5395,
      "jab": 5396,
      "jure": 5397,
      "jac": 5398,
      "jars": 5399,
      "jury": 5400,
      "kend": 5401,
      "kard": 5402,
      "kim": 5403,
      "kore": 5404,
      "khar": 5405,
      "kipe": 5406,
      "kward": 5407,
      "len": 5408,
      "lun": 5409,
      "lation": 5410,
      "lush": 5411,
      "lud": 5412,
      "lux": 5413,
      "leng": 5414,
      "mil": 5415,
      "must": 5416,
      "might": 5417,
      "mates": 5418,
      "mouse": 5419,
      "mild": 5420,
      "mult": 5421,
      "mings": 5422,
      "mbing": 5423,
      "mhole": 5424,
      "mumble": 5425,
      "mmal": 5426,
      "mcdon": 5427,
      "non": 5428,
      "nan": 5429,
      "nar": 5430,
      "nur": 5431,
      "napp": 5432,
      "nas": 5433,
      "none": 5434,
      "nick": 5435,
      "nood": 5436,
      "national": 5437,
      "nid": 5438,
      "native": 5439,
      "omy": 5440,
      "oms": 5441,
      "ocks": 5442,
      "ography": 5443,
      "odic": 5444,
      "olympics": 5445,
      "py": 5446,
      "pth": 5447,
      "parch": 5448,
      "pine": 5449,
      "phe": 5450,
      "ption": 5451,
      "pend": 5452,
      "pound": 5453,
      "pour": 5454,
      "pions": 5455,
      "pub": 5456,
      "ponder": 5457,
      "pond": 5458,
      "pdf": 5459,
      "rö": 5460,
      "ric": 5461,
      "rup": 5462,
      "rge": 5463,
      "rant": 5464,
      "rul": 5465,
      "rice": 5466,
      "rick": 5467,
      "rink": 5468,
      "rush": 5469,
      "rural": 5470,
      "san": 5471,
      "sse": 5472,
      "splay": 5473,
      "sus": 5474,
      "swe": 5475,
      "sill": 5476,
      "sity": 5477,
      "sers": 5478,
      "sour": 5479,
      "sket": 5480,
      "slight": 5481,
      "spre": 5482,
      "spla": 5483,
      "sations": 5484,
      "size": 5485,
      "sid": 5486,
      "sword": 5487,
      "sitar": 5488,
      "solu": 5489,
      "swan": 5490,
      "sAp": 5491,
      "slant": 5492,
      "spher": 5493,
      "snuff": 5494,
      "tan": 5495,
      "tto": 5496,
      "tate": 5497,
      "tent": 5498,
      "tage": 5499,
      "tick": 5500,
      "twitch": 5501,
      "tough": 5502,
      "tiny": 5503,
      "ticker": 5504,
      "tnite": 5505,
      "ume": 5506,
      "ulo": 5507,
      "ution": 5508,
      "uman": 5509,
      "umin": 5510,
      "ugh": 5511,
      "ums": 5512,
      "uding": 5513,
      "uum": 5514,
      "uish": 5515,
      "ufc": 5516,
      "vy": 5517,
      "vage": 5518,
      "vable": 5519,
      "vines": 5520,
      "vending": 5521,
      "vtu": 5522,
      "wow": 5523,
      "wig": 5524,
      "wins": 5525,
      "wery": 5526,
      "wDie": 5527,
      "xken": 5528,
      "yer": 5529,
      "yan": 5530,
      "ying": 5531,
      "yser": 5532,
      "yell": 5533,
      "yani": 5534,
      "yeah": 5535,
      "za": 5536,
      "zo": 5537,
      "zer": 5538,
      "zap": 5539,
      "zil": 5540,
      "zone": 5541,
      "zip": 5542,
      "zom": 5543,
      "ziness": 5544,
      "zoom": 5545,
      "zbin": 5546,
      "iner": 5547,
      "inse": 5548,
      "init": 5549,
      "inion": 5550,
      "infe": 5551,
      "income": 5552,
      "infin": 5553,
      "infl": 5554,
      "inanim": 5555,
      "infect": 5556,
      "inery": 5557,
      "inforce": 5558,
      "inquir": 5559,
      "innov": 5560,
      "inclusive": 5561,
      "inZOI": 5562,
      "incense": 5563,
      "injury": 5564,
      "thum": 5565,
      "thunder": 5566,
      "thailand": 5567,
      "rer": 5568,
      "rebe": 5569,
      "rema": 5570,
      "replay": 5571,
      "redi": 5572,
      "repor": 5573,
      "restor": 5574,
      "relaunch": 5575,
      "remix": 5576,
      "reschedule": 5577,
      "redom": 5578,
      "regard": 5579,
      "reach": 5580,
      "rets": 5581,
      "rehear": 5582,
      "rescan": 5583,
      "rebuild": 5584,
      "reference": 5585,
      "reserv": 5586,
      "reindex": 5587,
      "revolu": 5588,
      "reapply": 5589,
      "representation": 5590,
      "retail": 5591,
      "reward": 5592,
      "revert": 5593,
      "resync": 5594,
      "rebel": 5595,
      "reverb": 5596,
      "reason": 5597,
      "reviewed": 5598,
      "reinvention": 5599,
      "renovation": 5600,
      "redirect": 5601,
      "relation": 5602,
      "reinforce": 5603,
      "atit": 5604,
      "atop": 5605,
      "atom": 5606,
      "atta": 5607,
      "attemp": 5608,
      "atility": 5609,
      "atGPT": 5610,
      "meat": 5611,
      "mech": 5612,
      "meet": 5613,
      "meas": 5614,
      "metr": 5615,
      "melts": 5616,
      "thee": 5617,
      "thear": 5618,
      "these": 5619,
      "thera": 5620,
      "thedr": 5621,
      "stow": 5622,
      "stra": 5623,
      "stun": 5624,
      "stma": 5625,
      "stap": 5626,
      "stam": 5627,
      "still": 5628,
      "stare": 5629,
      "stone": 5630,
      "stard": 5631,
      "stick": 5632,
      "stood": 5633,
      "stance": 5634,
      "string": 5635,
      "strange": 5636,
      "stash": 5637,
      "stack": 5638,
      "sticker": 5639,
      "strings": 5640,
      "stirs": 5641,
      "stocks": 5642,
      "onent": 5643,
      "onies": 5644,
      "onics": 5645,
      "onding": 5646,
      "eration": 5647,
      "eras": 5648,
      "erry": 5649,
      "erstyle": 5650,
      "erlock": 5651,
      "ership": 5652,
      "erves": 5653,
      "erase": 5654,
      "erious": 5655,
      "erina": 5656,
      "erpill": 5657,
      "ana": 5658,
      "anan": 5659,
      "ango": 5660,
      "anical": 5661,
      "antho": 5662,
      "anchor": 5663,
      "anks": 5664,
      "angry": 5665,
      "aneous": 5666,
      "orde": 5667,
      "organi": 5668,
      "oud": 5669,
      "tox": 5670,
      "toss": 5671,
      "toff": 5672,
      "toast": 5673,
      "ingbird": 5674,
      "ingredi": 5675,
      "ald": 5676,
      "alone": 5677,
      "also": 5678,
      "alous": 5679,
      "alia": 5680,
      "alias": 5681,
      "arin": 5682,
      "arte": 5683,
      "arct": 5684,
      "arca": 5685,
      "arry": 5686,
      "arily": 5687,
      "arian": 5688,
      "arched": 5689,
      "seen": 5690,
      "seas": 5691,
      "seed": 5692,
      "semin": 5693,
      "seback": 5694,
      "seaf": 5695,
      "sections": 5696,
      "segment": 5697,
      "season": 5698,
      "searched": 5699,
      "enna": 5700,
      "enhouse": 5701,
      "enhan": 5702,
      "encrypt": 5703,
      "lem": 5704,
      "lege": 5705,
      "leplay": 5706,
      "lement": 5707,
      "lego": 5708,
      "lelight": 5709,
      "lephone": 5710,
      "leges": 5711,
      "leys": 5712,
      "lefto": 5713,
      "iter": 5714,
      "itate": 5715,
      "itas": 5716,
      "itial": 5717,
      "iture": 5718,
      "itations": 5719,
      "itself": 5720,
      "cham": 5721,
      "chment": 5722,
      "chalk": 5723,
      "chair": 5724,
      "chase": 5725,
      "chron": 5726,
      "china": 5727,
      "chrome": 5728,
      "chime": 5729,
      "cherry": 5730,
      "ict": 5731,
      "icon": 5732,
      "icle": 5733,
      "icill": 5734,
      "iced": 5735,
      "icature": 5736,
      "icloud": 5737,
      "isy": 5738,
      "ishow": 5739,
      "isms": 5740,
      "essen": 5741,
      "escent": 5742,
      "lop": 5743,
      "lost": 5744,
      "loan": 5745,
      "losing": 5746,
      "lodge": 5747,
      "forting": 5748,
      "format": 5749,
      "forgot": 5750,
      "formula": 5751,
      "fortnite": 5752,
      "lair": 5753,
      "lamar": 5754,
      "lagh": 5755,
      "laid": 5756,
      "lakes": 5757,
      "laggy": 5758,
      "lasers": 5759,
      "laugh": 5760,
      "laziness": 5761,
      "rave": 5762,
      "rack": 5763,
      "rass": 5764,
      "rather": 5765,
      "raked": 5766,
      "rails": 5767,
      "til": 5768,
      "tide": 5769,
      "till": 5770,
      "tight": 5771,
      "tize": 5772,
      "tiations": 5773,
      "tials": 5774,
      "tidbit": 5775,
      "timings": 5776,
      "ros": 5777,
      "rost": 5778,
      "rose": 5779,
      "robe": 5780,
      "ross": 5781,
      "rovers": 5782,
      "rotation": 5783,
      "robes": 5784,
      "rotate": 5785,
      "roleplay": 5786,
      "ateful": 5787,
      "upning": 5788,
      "upgra": 5789,
      "uploaded": 5790,
      "inds": 5791,
      "india": 5792,
      "industri": 5793,
      "lid": 5794,
      "lie": 5795,
      "lian": 5796,
      "liate": 5797,
      "liver": 5798,
      "liment": 5799,
      "lions": 5800,
      "lifter": 5801,
      "geon": 5802,
      "geles": 5803,
      "gears": 5804,
      "geometric": 5805,
      "geyser": 5806,
      "dez": 5807,
      "deer": 5808,
      "dees": 5809,
      "demo": 5810,
      "deta": 5811,
      "defog": 5812,
      "death": 5813,
      "declutter": 5814,
      "decrypt": 5815,
      "depth": 5816,
      "detox": 5817,
      "veget": 5818,
      "veball": 5819,
      "shy": 5820,
      "shing": 5821,
      "shen": 5822,
      "shap": 5823,
      "shak": 5824,
      "shape": 5825,
      "shore": 5826,
      "shtag": 5827,
      "shaking": 5828,
      "shove": 5829,
      "shmall": 5830,
      "shups": 5831,
      "shrink": 5832,
      "kees": 5833,
      "keys": 5834,
      "bear": 5835,
      "been": 5836,
      "bell": 5837,
      "beta": 5838,
      "beyon": 5839,
      "bells": 5840,
      "beans": 5841,
      "betray": 5842,
      "llower": 5843,
      "llations": 5844,
      "unne": 5845,
      "unlock": 5846,
      "unfin": 5847,
      "uncut": 5848,
      "unfold": 5849,
      "unscrip": 5850,
      "unknown": 5851,
      "unexpected": 5852,
      "unused": 5853,
      "unhing": 5854,
      "until": 5855,
      "temu": 5856,
      "telephone": 5857,
      "mad": 5858,
      "max": 5859,
      "may": 5860,
      "math": 5861,
      "masc": 5862,
      "mask": 5863,
      "maze": 5864,
      "madri": 5865,
      "mammal": 5866,
      "mashups": 5867,
      "igating": 5868,
      "oops": 5869,
      "ooze": 5870,
      "ooler": 5871,
      "utic": 5872,
      "uters": 5873,
      "vian": 5874,
      "vise": 5875,
      "viliz": 5876,
      "vileges": 5877,
      "doms": 5878,
      "outer": 5879,
      "outage": 5880,
      "outlin": 5881,
      "outdated": 5882,
      "outreach": 5883,
      "ceed": 5884,
      "cereal": 5885,
      "layers": 5886,
      "urning": 5887,
      "urgent": 5888,
      "apt": 5889,
      "apore": 5890,
      "aptive": 5891,
      "aphra": 5892,
      "wired": 5893,
      "willi": 5894,
      "width": 5895,
      "moat": 5896,
      "mole": 5897,
      "mother": 5898,
      "mostat": 5899,
      "mobi": 5900,
      "modif": 5901,
      "modor": 5902,
      "motto": 5903,
      "opt": 5904,
      "opic": 5905,
      "oppo": 5906,
      "option": 5907,
      "opinion": 5908,
      "omechan": 5909,
      "ometry": 5910,
      "ayanan": 5911,
      "playtime": 5912,
      "playthroughs": 5913,
      "ablo": 5914,
      "above": 5915,
      "absor": 5916,
      "ability": 5917,
      "andX": 5918,
      "reminders": 5919,
      "ney": 5920,
      "nect": 5921,
      "nego": 5922,
      "nebu": 5923,
      "neigh": 5924,
      "neurs": 5925,
      "clothing": 5926,
      "clothes": 5927,
      "scle": 5928,
      "scall": 5929,
      "scul": 5930,
      "scure": 5931,
      "scol": 5932,
      "scary": 5933,
      "scaling": 5934,
      "ssoms": 5935,
      "ada": 5936,
      "aders": 5937,
      "adds": 5938,
      "adding": 5939,
      "admission": 5940,
      "adsheet": 5941,
      "adaptive": 5942,
      "trade": 5943,
      "within": 5944,
      "closest": 5945,
      "syslog": 5946,
      "syscall": 5947,
      "intrig": 5948,
      "ilt": 5949,
      "node": 5950,
      "noisy": 5951,
      "nomad": 5952,
      "coat": 5953,
      "coal": 5954,
      "cocome": 5955,
      "coded": 5956,
      "coast": 5957,
      "cosmo": 5958,
      "covered": 5959,
      "cobbl": 5960,
      "cosplay": 5961,
      "rix": 5962,
      "rier": 5963,
      "rides": 5964,
      "riever": 5965,
      "ribble": 5966,
      "riddle": 5967,
      "ributor": 5968,
      "ristma": 5969,
      "steal": 5970,
      "steel": 5971,
      "stered": 5972,
      "stealing": 5973,
      "stellations": 5974,
      "poly": 5975,
      "pots": 5976,
      "potions": 5977,
      "posit": 5978,
      "posted": 5979,
      "pomodor": 5980,
      "fell": 5981,
      "cting": 5982,
      "ctus": 5983,
      "ctural": 5984,
      "wet": 5985,
      "were": 5986,
      "wester": 5987,
      "proof": 5988,
      "provide": 5989,
      "proble": 5990,
      "protests": 5991,
      "prophe": 5992,
      "chew": 5993,
      "chefs": 5994,
      "worth": 5995,
      "worked": 5996,
      "worthy": 5997,
      "wormhole": 5998,
      "inem": 5999,
      "timent": 6000,
      "timelapse": 6001,
      "timesheet": 6002,
      "timezone": 6003,
      "heit": 6004,
      "heard": 6005,
      "heals": 6006,
      "heater": 6007,
      "creation": 6008,
      "daylight": 6009,
      "daydream": 6010,
      "ills": 6011,
      "illumin": 6012,
      "mentally": 6013,
      "appy": 6014,
      "systems": 6015,
      "etly": 6016,
      "extre": 6017,
      "exting": 6018,
      "exper": 6019,
      "export": 6020,
      "exhi": 6021,
      "expen": 6022,
      "expose": 6023,
      "excel": 6024,
      "exotic": 6025,
      "exclusive": 6026,
      "excited": 6027,
      "getaway": 6028,
      "fail": 6029,
      "father": 6030,
      "fails": 6031,
      "terrain": 6032,
      "canyon": 6033,
      "logical": 6034,
      "leak": 6035,
      "leaky": 6036,
      "tional": 6037,
      "congest": 6038,
      "conci": 6039,
      "conferences": 6040,
      "conjure": 6041,
      "constellations": 6042,
      "dual": 6043,
      "dumb": 6044,
      "energize": 6045,
      "listing": 6046,
      "listicle": 6047,
      "asion": 6048,
      "asons": 6049,
      "follower": 6050,
      "ldier": 6051,
      "quet": 6052,
      "quits": 6053,
      "quiz": 6054,
      "queries": 6055,
      "quarte": 6056,
      "showtimes": 6057,
      "showcase": 6058,
      "entration": 6059,
      "imaa": 6060,
      "images": 6061,
      "thingy": 6062,
      "videography": 6063,
      "arean": 6064,
      "deserves": 6065,
      "fiest": 6066,
      "fifte": 6067,
      "filiate": 6068,
      "peg": 6069,
      "pep": 6070,
      "peline": 6071,
      "peutic": 6072,
      "pearean": 6073,
      "owning": 6074,
      "ownies": 6075,
      "sule": 6076,
      "suck": 6077,
      "suite": 6078,
      "suits": 6079,
      "sudden": 6080,
      "suffer": 6081,
      "YouTub": 6082,
      "dim": 6083,
      "direc": 6084,
      "distr": 6085,
      "diaries": 6086,
      "digest": 6087,
      "diverse": 6088,
      "dimen": 6089,
      "dians": 6090,
      "dirge": 6091,
      "diablo": 6092,
      "downs": 6093,
      "downtempo": 6094,
      "drafting": 6095,
      "booking": 6096,
      "booster": 6097,
      "ignition": 6098,
      "workstation": 6099,
      "finds": 6100,
      "endless": 6101,
      "boy": 6102,
      "boiling": 6103,
      "bolt": 6104,
      "bomb": 6105,
      "boredom": 6106,
      "cage": 6107,
      "cacti": 6108,
      "cathedr": 6109,
      "cactus": 6110,
      "offload": 6111,
      "checkpoint": 6112,
      "iron": 6113,
      "irony": 6114,
      "mputers": 6115,
      "hail": 6116,
      "haiku": 6117,
      "hazbin": 6118,
      "hashtag": 6119,
      "brownies": 6120,
      "shuttle": 6121,
      "phin": 6122,
      "phic": 6123,
      "phers": 6124,
      "edits": 6125,
      "musk": 6126,
      "ulate": 6127,
      "ults": 6128,
      "musician": 6129,
      "elf": 6130,
      "els": 6131,
      "elon": 6132,
      "eling": 6133,
      "elves": 6134,
      "eliness": 6135,
      "eliner": 6136,
      "topping": 6137,
      "treated": 6138,
      "bai": 6139,
      "babe": 6140,
      "bass": 6141,
      "bail": 6142,
      "ister": 6143,
      "istan": 6144,
      "istence": 6145,
      "opened": 6146,
      "tells": 6147,
      "cursed": 6148,
      "curtail": 6149,
      "curveball": 6150,
      "mory": 6151,
      "ideal": 6152,
      "cles": 6153,
      "mance": 6154,
      "manage": 6155,
      "manga": 6156,
      "manual": 6157,
      "manually": 6158,
      "manhunt": 6159,
      "dismount": 6160,
      "dispen": 6161,
      "discus": 6162,
      "disgui": 6163,
      "discard": 6164,
      "dissol": 6165,
      "disconnect": 6166,
      "dishwash": 6167,
      "disinfect": 6168,
      "oursel": 6169,
      "acne": 6170,
      "accu": 6171,
      "accor": 6172,
      "accel": 6173,
      "accid": 6174,
      "across": 6175,
      "windy": 6176,
      "winding": 6177,
      "windier": 6178,
      "waters": 6179,
      "Why": 6180,
      "guess": 6181,
      "guaca": 6182,
      "guilt": 6183,
      "views": 6184,
      "viewing": 6185,
      "ipur": 6186,
      "ipment": 6187,
      "livestream": 6188,
      "livestreams": 6189,
      "ketball": 6190,
      "gave": 6191,
      "gaze": 6192,
      "updating": 6193,
      "drawer": 6194,
      "calls": 6195,
      "minescent": 6196,
      "minister": 6197,
      "digger": 6198,
      "digging": 6199,
      "porch": 6200,
      "grass": 6201,
      "grazing": 6202,
      "gravey": 6203,
      "mith": 6204,
      "mixt": 6205,
      "goal": 6206,
      "goals": 6207,
      "golem": 6208,
      "tingly": 6209,
      "bestie": 6210,
      "painter": 6211,
      "painterly": 6212,
      "buff": 6213,
      "bucks": 6214,
      "bucket": 6215,
      "cuff": 6216,
      "cutoff": 6217,
      "imals": 6218,
      "imitate": 6219,
      "backlight": 6220,
      "epic": 6221,
      "perks": 6222,
      "soundspace": 6223,
      "soundstorm": 6224,
      "kings": 6225,
      "kingdom": 6226,
      "kingdoms": 6227,
      "psing": 6228,
      "castles": 6229,
      "saga": 6230,
      "savan": 6231,
      "safaris": 6232,
      "savage": 6233,
      "boots": 6234,
      "bootable": 6235,
      "bootloader": 6236,
      "watering": 6237,
      "rentals": 6238,
      "modeling": 6239,
      "ainer": 6240,
      "popout": 6241,
      "population": 6242,
      "poppin": 6243,
      "poppy": 6244,
      "sery": 6245,
      "byte": 6246,
      "preva": 6247,
      "pretend": 6248,
      "predic": 6249,
      "pretation": 6250,
      "presid": 6251,
      "production": 6252,
      "producing": 6253,
      "dying": 6254,
      "mary": 6255,
      "marine": 6256,
      "mariach": 6257,
      "marshmall": 6258,
      "pipeline": 6259,
      "thern": 6260,
      "thermostat": 6261,
      "bookend": 6262,
      "interval": 6263,
      "intermit": 6264,
      "interplanet": 6265,
      "interactive": 6266,
      "interfaces": 6267,
      "interpretation": 6268,
      "overs": 6269,
      "overcast": 6270,
      "overthink": 6271,
      "overlap": 6272,
      "overpack": 6273,
      "overcame": 6274,
      "overcoming": 6275,
      "overthinking": 6276,
      "overlord": 6277,
      "ranked": 6278,
      "rankings": 6279,
      "runaway": 6280,
      "posts": 6281,
      "posture": 6282,
      "ols": 6283,
      "olves": 6284,
      "turns": 6285,
      "spewing": 6286,
      "specif": 6287,
      "scream": 6288,
      "screams": 6289,
      "AIs": 6290,
      "AI202": 6291,
      "carve": 6292,
      "carpet": 6293,
      "carav": 6294,
      "caricature": 6295,
      "carols": 6296,
      "funni": 6297,
      "classes": 6298,
      "clashing": 6299,
      "mones": 6300,
      "monta": 6301,
      "monast": 6302,
      "montage": 6303,
      "recorder": 6304,
      "recru": 6305,
      "ession": 6306,
      "Canada": 6307,
      "zzle": 6308,
      "zzling": 6309,
      "WhatsAp": 6310,
      "cityscapes": 6311,
      "landlord": 6312,
      "classy": 6313,
      "classroom": 6314,
      "skit": 6315,
      "skies": 6316,
      "skating": 6317,
      "skills": 6318,
      "200": 6319,
      "2000s": 6320,
      "2018": 6321,
      "brewing": 6322,
      "breeze": 6323,
      "breezy": 6324,
      "brewery": 6325,
      "dinger": 6326,
      "lowdown": 6327,
      "lowest": 6328,
      "spam": 6329,
      "techie": 6330,
      "sunday": 6331,
      "sunflowers": 6332,
      "sunroof": 6333,
      "sunflower": 6334,
      "sunspot": 6335,
      "fireworks": 6336,
      "portable": 6337,
      "everyone": 6338,
      "cycl": 6339,
      "cybor": 6340,
      "cyphers": 6341,
      "climbing": 6342,
      "contributor": 6343,
      "container": 6344,
      "traveler": 6345,
      "updated": 6346,
      "affect": 6347,
      "affirm": 6348,
      "affiliate": 6349,
      "dition": 6350,
      "anyway": 6351,
      "anymore": 6352,
      "combo": 6353,
      "common": 6354,
      "compare": 6355,
      "comforting": 6356,
      "component": 6357,
      "compliment": 6358,
      "cooker": 6359,
      "visa": 6360,
      "visation": 6361,
      "visitor": 6362,
      "visually": 6363,
      "visible": 6364,
      "atures": 6365,
      "mixer": 6366,
      "2024": 6367,
      "ript": 6368,
      "ripple": 6369,
      "rainfall": 6370,
      "rainbow": 6371,
      "feelin": 6372,
      "dread": 6373,
      "dressed": 6374,
      "elections": 6375,
      "calms": 6376,
      "calcul": 6377,
      "homework": 6378,
      "hometown": 6379,
      "knows": 6380,
      "takeaways": 6381,
      "understood": 6382,
      "needs": 6383,
      "needy": 6384,
      "cessary": 6385,
      "chilling": 6386,
      "hoard": 6387,
      "highways": 6388,
      "omics": 6389,
      "sock": 6390,
      "soldier": 6391,
      "strand": 6392,
      "strations": 6393,
      "rocks": 6394,
      "rocky": 6395,
      "header": 6396,
      "heading": 6397,
      "headings": 6398,
      "hub": 6399,
      "huh": 6400,
      "hugging": 6401,
      "huddle": 6402,
      "sideline": 6403,
      "nado": 6404,
      "naments": 6405,
      "named": 6406,
      "names": 6407,
      "restarts": 6408,
      "botanical": 6409,
      "java": 6410,
      "talkative": 6411,
      "stopping": 6412,
      "stopped": 6413,
      "ooky": 6414,
      "caterpill": 6415,
      "taco": 6416,
      "viruses": 6417,
      "gamer": 6418,
      "prices": 6419,
      "pricing": 6420,
      "restock": 6421,
      "learned": 6422,
      "planner": 6423,
      "Seasons": 6424,
      "Stitch": 6425,
      "Stories": 6426,
      "Starry": 6427,
      "airs": 6428,
      "renheit": 6429,
      "colonies": 6430,
      "college": 6431,
      "gratit": 6432,
      "grateful": 6433,
      "singing": 6434,
      "values": 6435,
      "valley": 6436,
      "valleys": 6437,
      "helmet": 6438,
      "diagram": 6439,
      "diabet": 6440,
      "dragonfly": 6441,
      "breaks": 6442,
      "breakup": 6443,
      "breakdowns": 6444,
      "spaceport": 6445,
      "electronics": 6446,
      "Reset": 6447,
      "Retell": 6448,
      "React": 6449,
      "Refresh": 6450,
      "Reimagine": 6451,
      "Revive": 6452,
      "Reels": 6453,
      "comeback": 6454,
      "comedians": 6455,
      "daemon": 6456,
      "nuclear": 6457,
      "nudges": 6458,
      "true": 6459,
      "trump": 6460,
      "throughout": 6461,
      "throughput": 6462,
      "ortant": 6463,
      "changed": 6464,
      "biking": 6465,
      "bids": 6466,
      "biolu": 6467,
      "biker": 6468,
      "biopic": 6469,
      "biomechan": 6470,
      "drizzling": 6471,
      "float": 6472,
      "floor": 6473,
      "flood": 6474,
      "matrix": 6475,
      "brings": 6476,
      "hiking": 6477,
      "hiding": 6478,
      "hiya": 6479,
      "hiii": 6480,
      "pture": 6481,
      "pancakes": 6482,
      "temps": 6483,
      "template": 6484,
      "temples": 6485,
      "motivates": 6486,
      "factor": 6487,
      "factory": 6488,
      "graphical": 6489,
      "acts": 6490,
      "acting": 6491,
      "jewel": 6492,
      "jealous": 6493,
      "jeeling": 6494,
      "join": 6495,
      "sleepy": 6496,
      "meetings": 6497,
      "boards": 6498,
      "boardwalk": 6499,
      "planting": 6500,
      "battles": 6501,
      "subtext": 6502,
      "subtle": 6503,
      "subtitle": 6504,
      "subtitles": 6505,
      "submissions": 6506,
      "substance": 6507,
      "subheadings": 6508,
      "ctives": 6509,
      "mug": 6510,
      "muggy": 6511,
      "muscle": 6512,
      "muzzle": 6513,
      "partitions": 6514,
      "spit": 6515,
      "spying": 6516,
      "spooler": 6517,
      "spooky": 6518,
      "netic": 6519,
      "capable": 6520,
      "capture": 6521,
      "capsule": 6522,
      "flick": 6523,
      "flute": 6524,
      "flicker": 6525,
      "houses": 6526,
      "arky": 6527,
      "magnit": 6528,
      "machinery": 6529,
      "skylines": 6530,
      "skyscra": 6531,
      "bliss": 6532,
      "bluetooth": 6533,
      "blinds": 6534,
      "picks": 6535,
      "wrapped": 6536,
      "versions": 6537,
      "Fix": 6538,
      "transcript": 6539,
      "walks": 6540,
      "stands": 6541,
      "standup": 6542,
      "standby": 6543,
      "cksmith": 6544,
      "watches": 6545,
      "watchdog": 6546,
      "produced": 6547,
      "audiobooks": 6548,
      "goodbye": 6549,
      "switcher": 6550,
      "softly": 6551,
      "wait": 6552,
      "waking": 6553,
      "lifesty": 6554,
      "quell": 6555,
      "queline": 6556,
      "AMVs": 6557,
      "bledon": 6558,
      "activism": 6559,
      "guided": 6560,
      "guidelines": 6561,
      "smartwatches": 6562,
      "jects": 6563,
      "balancing": 6564,
      "grooming": 6565,
      "signoff": 6566,
      "signboard": 6567,
      "signups": 6568,
      "signatures": 6569,
      "chats": 6570,
      "chatting": 6571,
      "chatbot": 6572,
      "charity": 6573,
      "charcoal": 6574,
      "gesture": 6575,
      "visualized": 6576,
      "Ink": 6577,
      "Innovation": 6578,
      "Initial": 6579,
      "assume": 6580,
      "bang": 6581,
      "banger": 6582,
      "banner": 6583,
      "banana": 6584,
      "banquet": 6585,
      "hourly": 6586,
      "penicill": 6587,
      "says": 6588,
      "regal": 6589,
      "regret": 6590,
      "regional": 6591,
      "regrets": 6592,
      "remembering": 6593,
      "roommates": 6594,
      "Los": 6595,
      "Lose": 6596,
      "Lock": 6597,
      "civiliz": 6598,
      "iences": 6599,
      "toolkit": 6600,
      "pagefile": 6601,
      "hearing": 6602,
      "explains": 6603,
      "explainer": 6604,
      "networking": 6605,
      "writers": 6606,
      "removable": 6607,
      "memorable": 6608,
      "starlight": 6609,
      "starry": 6610,
      "starring": 6611,
      "stargaze": 6612,
      "starbucks": 6613,
      "branding": 6614,
      "backgrounds": 6615,
      "monitors": 6616,
      "monitoring": 6617,
      "greenhouse": 6618,
      "oldies": 6619,
      "texture": 6620,
      "textures": 6621,
      "cork": 6622,
      "coral": 6623,
      "corner": 6624,
      "corrup": 6625,
      "echo": 6626,
      "echoes": 6627,
      "fully": 6628,
      "fullscreen": 6629,
      "router": 6630,
      "writeup": 6631,
      "ounces": 6632,
      "trains": 6633,
      "synchron": 6634,
      "Propose": 6635,
      "biryani": 6636,
      "crazy": 6637,
      "crayon": 6638,
      "donezo": 6639,
      "vibin": 6640,
      "vibing": 6641,
      "vibration": 6642,
      "faster": 6643,
      "fasting": 6644,
      "cybersecurity": 6645,
      "cybernetic": 6646,
      "helpdesk": 6647,
      "crying": 6648,
      "drate": 6649,
      "drums": 6650,
      "kespearean": 6651,
      "warmer": 6652,
      "invites": 6653,
      "invitations": 6654,
      "invaders": 6655,
      "invasion": 6656,
      "involves": 6657,
      "anthem": 6658,
      "testers": 6659,
      "moonlit": 6660,
      "midweek": 6661,
      "middle": 6662,
      "recently": 6663,
      "flair": 6664,
      "flakes": 6665,
      "flames": 6666,
      "flamen": 6667,
      "figure": 6668,
      "figures": 6669,
      "snooze": 6670,
      "snappy": 6671,
      "snarky": 6672,
      "suppress": 6673,
      "supple": 6674,
      "silver": 6675,
      "silicon": 6676,
      "tale": 6677,
      "tales": 6678,
      "talked": 6679,
      "reef": 6680,
      "merch": 6681,
      "projector": 6682,
      "improv": 6683,
      "improving": 6684,
      "improvisation": 6685,
      "safeguard": 6686,
      "computers": 6687,
      "installation": 6688,
      "30k": 6689,
      "basketball": 6690,
      "cares": 6691,
      "career": 6692,
      "horseback": 6693,
      "hormones": 6694,
      "insert": 6695,
      "instrument": 6696,
      "instructions": 6697,
      "retort": 6698,
      "returning": 6699,
      "retriever": 6700,
      "followers": 6701,
      "followed": 6702,
      "peripher": 6703,
      "periodic": 6704,
      "cooler": 6705,
      "freedom": 6706,
      "freezing": 6707,
      "diagnostic": 6708,
      "blades": 6709,
      "blazing": 6710,
      "blacksmith": 6711,
      "cuts": 6712,
      "darkness": 6713,
      "darkwave": 6714,
      "happiness": 6715,
      "happiest": 6716,
      "lunchbox": 6717,
      "paris": 6718,
      "parking": 6719,
      "tension": 6720,
      "medical": 6721,
      "medley": 6722,
      "buyers": 6723,
      "Sherlock": 6724,
      "Wikipe": 6725,
      "bites": 6726,
      "bitions": 6727,
      "bitcoin": 6728,
      "payment": 6729,
      "practicing": 6730,
      "libraries": 6731,
      "mysterious": 6732,
      "experience": 6733,
      "concentration": 6734,
      "concepts": 6735,
      "browse": 6736,
      "ultaneous": 6737,
      "automate": 6738,
      "collections": 6739,
      "personalization": 6740,
      "instrumentals": 6741,
      "casm": 6742,
      "casions": 6743,
      "hands": 6744,
      "handles": 6745,
      "handpan": 6746,
      "wanted": 6747,
      "throwback": 6748,
      "stationery": 6749,
      "stockings": 6750,
      "choose": 6751,
      "feeds": 6752,
      "configs": 6753,
      "configure": 6754,
      "drafts": 6755,
      "stretching": 6756,
      "stretches": 6757,
      "servicing": 6758,
      "clients": 6759,
      "smoother": 6760,
      "planets": 6761,
      "finishes": 6762,
      "rhythmic": 6763,
      "sustainability": 6764,
      "Docs": 6765,
      "badass": 6766,
      "eyeliner": 6767,
      "falling": 6768,
      "fallers": 6769,
      "flowy": 6770,
      "journey": 6771,
      "shared": 6772,
      "shares": 6773,
      "clockwork": 6774,
      "cached": 6775,
      "readings": 6776,
      "transition": 6777,
      "remotely": 6778,
      "descriptions": 6779,
      "tweetable": 6780,
      "blackout": 6781,
      "Enable": 6782,
      "Engine": 6783,
      "Ensemble": 6784,
      "born": 6785,
      "boring": 6786,
      "border": 6787,
      "crate": 6788,
      "crush": 6789,
      "gala": 6790,
      "gentina": 6791,
      "knights": 6792,
      "infographic": 6793,
      "infographics": 6794,
      "announcing": 6795,
      "bedsheet": 6796,
      "passive": 6797,
      "passwords": 6798,
      "buzzwords": 6799,
      "letters": 6800,
      "speaker": 6801,
      "ballad": 6802,
      "meaningful": 6803,
      "medievalism": 6804,
      "destiny": 6805,
      "Drake": 6806,
      "daddy": 6807,
      "gang": 6808,
      "half": 6809,
      "loneliness": 6810,
      "titled": 6811,
      "reels": 6812,
      "teases": 6813,
      "discovery": 6814,
      "ghosted": 6815,
      "profound": 6816,
      "colorful": 6817,
      "4572": 6818,
      "Mona": 6819,
      "blossoms": 6820,
      "customize": 6821,
      "liners": 6822,
      "purr": 6823,
      "purge": 6824,
      "purple": 6825,
      "sitcom": 6826,
      "snowflakes": 6827,
      "snail": 6828,
      "vacy": 6829,
      "vaccine": 6830,
      "vacuum": 6831,
      "recogn": 6832,
      "melodic": 6833,
      "messy": 6834,
      "messages": 6835,
      "messaging": 6836,
      "forced": 6837,
      "teaches": 6838,
      "wildfire": 6839,
      "addiction": 6840,
      "wearable": 6841,
      "hauntingly": 6842,
      "edited": 6843,
      "guests": 6844,
      "prepping": 6845,
      "spirits": 6846,
      "spiraling": 6847,
      "groovy": 6848,
      "flipping": 6849,
      "educate": 6850,
      "Nah": 6851,
      "Nail": 6852,
      "Suns": 6853,
      "United": 6854,
      "aurora": 6855,
      "court": 6856,
      "harp": 6857,
      "hardest": 6858,
      "harmony": 6859,
      "iety": 6860,
      "llion": 6861,
      "otherwise": 6862,
      "rule": 6863,
      "ruled": 6864,
      "sius": 6865,
      "sibling": 6866,
      "samba": 6867,
      "samples": 6868,
      "turbo": 6869,
      "turned": 6870,
      "utiliz": 6871,
      "thrift": 6872,
      "thriving": 6873,
      "secrets": 6874,
      "defines": 6875,
      "defrost": 6876,
      "setups": 6877,
      "intense": 6878,
      "intensity": 6879,
      "intentional": 6880,
      "potential": 6881,
      "accessories": 6882,
      "clipboard": 6883,
      "clipped": 6884,
      "newsletters": 6885,
      "toothbrush": 6886,
      "snapshot": 6887,
      "thanks": 6888,
      "Disable": 6889,
      "Discip": 6890,
      "Spark": 6891,
      "Tidy": 6892,
      "barometric": 6893,
      "barrass": 6894,
      "candlelight": 6895,
      "footprint": 6896,
      "football": 6897,
      "sale": 6898,
      "salon": 6899,
      "saloon": 6900,
      "slide": 6901,
      "smoggy": 6902,
      "trim": 6903,
      "tribal": 6904,
      "vloggers": 6905,
      "zones": 6906,
      "thosh": 6907,
      "staying": 6908,
      "albums": 6909,
      "sensor": 6910,
      "sensations": 6911,
      "sentiment": 6912,
      "chord": 6913,
      "charts": 6914,
      "defaults": 6915,
      "doors": 6916,
      "conversational": 6917,
      "quietly": 6918,
      "server1": 6919,
      "authorization": 6920,
      "gameplays": 6921,
      "fluctu": 6922,
      "superpower": 6923,
      "supernatural": 6924,
      "bullets": 6925,
      "Chill": 6926,
      "Change": 6927,
      "ChatGPT": 6928,
      "Chenna": 6929,
      "Christma": 6930,
      "culents": 6931,
      "eminem": 6932,
      "embarrass": 6933,
      "ethical": 6934,
      "grows": 6935,
      "growth": 6936,
      "hybrid": 6937,
      "hydrate": 6938,
      "kindness": 6939,
      "nerd": 6940,
      "nerdy": 6941,
      "privileges": 6942,
      "primary": 6943,
      "privacy": 6944,
      "punchline": 6945,
      "ensemble": 6946,
      "chose": 6947,
      "looped": 6948,
      "detectives": 6949,
      "sharing": 6950,
      "docked": 6951,
      "pastries": 6952,
      "pollution": 6953,
      "creatives": 6954,
      "exists": 6955,
      "explores": 6956,
      "catching": 6957,
      "register": 6958,
      "nostalgia": 6959,
      "transforming": 6960,
      "twisters": 6961,
      "progressive": 6962,
      "Explain": 6963,
      "Neha": 6964,
      "WordPress": 6965,
      "circles": 6966,
      "glam": 6967,
      "glass": 6968,
      "lounges": 6969,
      "palace": 6970,
      "sarcasm": 6971,
      "slaps": 6972,
      "tablet": 6973,
      "touchscreen": 6974,
      "wardrobe": 6975,
      "inspiration": 6976,
      "orchestrate": 6977,
      "legally": 6978,
      "chessboard": 6979,
      "lawyer": 6980,
      "whispers": 6981,
      "mockup": 6982,
      "opera": 6983,
      "operation": 6984,
      "operating": 6985,
      "scrapbooking": 6986,
      "coverage": 6987,
      "expecting": 6988,
      "expedition": 6989,
      "connectivity": 6990,
      "connections": 6991,
      "dernize": 6992,
      "pixels": 6993,
      "printing": 6994,
      "airships": 6995,
      "collab": 6996,
      "collapsing": 6997,
      "jobs": 6998,
      "battlefield": 6999,
      "happens": 7000,
      "celebrate": 7001,
      "celebration": 7002,
      "celebrities": 7003,
      "celebratory": 7004,
      "mirrors": 7005,
      "mirrorless": 7006,
      "developer": 7007,
      "developed": 7008,
      "Arch": 7009,
      "Argentina": 7010,
      "Bang": 7011,
      "Eurovision": 7012,
      "GPS": 7013,
      "Linux": 7014,
      "Mode": 7015,
      "Moby": 7016,
      "Modernize": 7017,
      "ashian": 7018,
      "ballerina": 7019,
      "crossed": 7020,
      "crowds": 7021,
      "danger": 7022,
      "dancers": 7023,
      "frameworks": 7024,
      "hallway": 7025,
      "hilltop": 7026,
      "implement": 7027,
      "important": 7028,
      "joking": 7029,
      "nicest": 7030,
      "twin": 7031,
      "tourism": 7032,
      "tournaments": 7033,
      "volatility": 7034,
      "walked": 7035,
      "warmth": 7036,
      "respond": 7037,
      "responding": 7038,
      "attendance": 7039,
      "organize": 7040,
      "organisms": 7041,
      "leads": 7042,
      "leaders": 7043,
      "leadership": 7044,
      "lectures": 7045,
      "keywords": 7046,
      "violations": 7047,
      "pairing": 7048,
      "welcoming": 7049,
      "promote": 7050,
      "promoting": 7051,
      "promotes": 7052,
      "contract": 7053,
      "contractor": 7054,
      "contradic": 7055,
      "concluding": 7056,
      "suitcase": 7057,
      "clubs": 7058,
      "highlighting": 7059,
      "bluegrass": 7060,
      "introduces": 7061,
      "avatars": 7062,
      "snackable": 7063,
      "honestly": 7064,
      "astronomy": 7065,
      "vitamins": 7066,
      "influencer": 7067,
      "annoyed": 7068,
      "API": 7069,
      "Construct": 7070,
      "Connect": 7071,
      "DNA": 7072,
      "Forge": 7073,
      "Force": 7074,
      "Format": 7075,
      "Formula": 7076,
      "GitHub": 7077,
      "Toh": 7078,
      "Toss": 7079,
      "Toggle": 7080,
      "bridge": 7081,
      "galleries": 7082,
      "herbs": 7083,
      "judice": 7084,
      "monetize": 7085,
      "pitching": 7086,
      "pumps": 7087,
      "sandals": 7088,
      "spoon": 7089,
      "similar": 7090,
      "simultaneous": 7091,
      "tarot": 7092,
      "inavian": 7093,
      "relatable": 7094,
      "replaced": 7095,
      "attendees": 7096,
      "metaverse": 7097,
      "argument": 7098,
      "decimals": 7099,
      "devices": 7100,
      "delayed": 7101,
      "dolphin": 7102,
      "docking": 7103,
      "playfulness": 7104,
      "trapped": 7105,
      "close_window": 7106,
      "close_port": 7107,
      "close_disk": 7108,
      "close_thread": 7109,
      "riverside": 7110,
      "parental": 7111,
      "distant": 7112,
      "distros": 7113,
      "hauls": 7114,
      "grabbing": 7115,
      "performing": 7116,
      "sassy": 7117,
      "previews": 7118,
      "carrying": 7119,
      "recycle": 7120,
      "composed": 7121,
      "comparison": 7122,
      "cookies": 7123,
      "clicks": 7124,
      "hobbies": 7125,
      "butterfly": 7126,
      "sparks": 7127,
      "summoned": 7128,
      "integrate": 7129,
      "flags": 7130,
      "snipping": 7131,
      "professor": 7132,
      "campaigns": 7133,
      "vaccines": 7134,
      "glitchin": 7135,
      "developments": 7136,
      "European": 7137,
      "volcanoes": 7138,
      "violinist": 7139,
      "astronauts": 7140,
      "investing": 7141,
      "investigating": 7142,
      "retreats": 7143,
      "metaphors": 7144,
      "philosophical": 7145,
      "Anna": 7146,
      "Anchor": 7147,
      "Angeles": 7148,
      "Brew": 7149,
      "Broadcast": 7150,
      "Celsius": 7151,
      "Formulate": 7152,
      "Priya": 7153,
      "River": 7154,
      "Scrap": 7155,
      "Scribble": 7156,
      "Supper": 7157,
      "awkward": 7158,
      "agents": 7159,
      "bandwidth": 7160,
      "courier": 7161,
      "critics": 7162,
      "dungeon": 7163,
      "farming": 7164,
      "farmhouse": 7165,
      "gloves": 7166,
      "hungry": 7167,
      "hurry": 7168,
      "kitten": 7169,
      "lullab": 7170,
      "mistake": 7171,
      "obscure": 7172,
      "objects": 7173,
      "pushy": 7174,
      "sorFlow": 7175,
      "sadness": 7176,
      "tornado": 7177,
      "throat": 7178,
      "repairs": 7179,
      "replying": 7180,
      "atoms": 7181,
      "atmospher": 7182,
      "mechanic": 7183,
      "stalls": 7184,
      "answers": 7185,
      "towering": 7186,
      "lighthear": 7187,
      "whitepaper": 7188,
      "shift": 7189,
      "shelve": 7190,
      "unwinding": 7191,
      "mastermind": 7192,
      "utterance": 7193,
      "moved": 7194,
      "movement": 7195,
      "neurship": 7196,
      "scared": 7197,
      "scares": 7198,
      "symphonic": 7199,
      "nothingness": 7200,
      "wedding": 7201,
      "protein": 7202,
      "extras": 7203,
      "examples": 7204,
      "conditions": 7205,
      "fierce": 7206,
      "suggestions": 7207,
      "director": 7208,
      "dialogue": 7209,
      "bolster": 7210,
      "brushing": 7211,
      "physical": 7212,
      "seriously": 7213,
      "premieres": 7214,
      "authentication": 7215,
      "essays": 7216,
      "continue": 7217,
      "calibrate": 7218,
      "materials": 7219,
      "vocals": 7220,
      "jotted": 7221,
      "storyteller": 7222,
      "mermaids": 7223,
      "microphone": 7224,
      "reflects": 7225,
      "university": 7226,
      "securely": 7227,
      "Newton": 7228,
      "responsible": 7229,
      "procrastinate": 7230,
      "available": 7231,
      "1800s": 7232,
      "Adams": 7233,
      "Adapt": 7234,
      "Alert": 7235,
      "Alpha": 7236,
      "Apple": 7237,
      "Asia": 7238,
      "Assemble": 7239,
      "Code": 7240,
      "Computers": 7241,
      "Deliver": 7242,
      "Devise": 7243,
      "Distill": 7244,
      "Disturb": 7245,
      "EPL": 7246,
      "Fortnite": 7247,
      "Head": 7248,
      "Health": 7249,
      "Jazz": 7250,
      "Jaipur": 7251,
      "LAN": 7252,
      "Morning": 7253,
      "Moroc": 7254,
      "Mockingbird": 7255,
      "Piece": 7256,
      "Quit": 7257,
      "Quick": 7258,
      "Snake": 7259,
      "Snip": 7260,
      "Santhosh": 7261,
      "Skyfallers": 7262,
      "TSLA": 7263,
      "Talks": 7264,
      "Update": 7265,
      "broken": 7266,
      "crime": 7267,
      "crimp": 7268,
      "dusty": 7269,
      "dunks": 7270,
      "equations": 7271,
      "equipment": 7272,
      "europe": 7273,
      "frozen": 7274,
      "fruit": 7275,
      "fruits": 7276,
      "hovering": 7277,
      "hoverboard": 7278,
      "jingle": 7279,
      "kata": 7280,
      "katt": 7281,
      "lantis": 7282,
      "malware": 7283,
      "missed": 7284,
      "misplace": 7285,
      "norway": 7286,
      "northern": 7287,
      "occasions": 7288,
      "pinch": 7289,
      "pulse": 7290,
      "pulled": 7291,
      "pranks": 7292,
      "inspect": 7293,
      "inspection": 7294,
      "thyroid": 7295,
      "repeat": 7296,
      "repeating": 7297,
      "recurring": 7298,
      "recursion": 7299,
      "related": 7300,
      "reactor": 7301,
      "strike": 7302,
      "striking": 7303,
      "stranger": 7304,
      "strangers": 7305,
      "stovetop": 7306,
      "erupt": 7307,
      "eruption": 7308,
      "anxious": 7309,
      "anxiety": 7310,
      "angel": 7311,
      "arrive": 7312,
      "arrival": 7313,
      "engineer": 7314,
      "chores": 7315,
      "choreography": 7316,
      "debate": 7317,
      "debates": 7318,
      "demonstrations": 7319,
      "degree": 7320,
      "degrees": 7321,
      "debugging": 7322,
      "shining": 7323,
      "shooting": 7324,
      "shoots": 7325,
      "shouting": 7326,
      "shoutout": 7327,
      "scraping": 7328,
      "scoop": 7329,
      "scooter": 7330,
      "advisor": 7331,
      "advisory": 7332,
      "traditions": 7333,
      "traditional": 7334,
      "symbolism": 7335,
      "passionate": 7336,
      "polish": 7337,
      "polished": 7338,
      "ctuary": 7339,
      "weakness": 7340,
      "provider": 7341,
      "providers": 7342,
      "architecture": 7343,
      "architectural": 7344,
      "expired": 7345,
      "expires": 7346,
      "experts": 7347,
      "confused": 7348,
      "confession": 7349,
      "confident": 7350,
      "confidence": 7351,
      "confirmation": 7352,
      "entrepreneurs": 7353,
      "entrepreneurship": 7354,
      "succeed": 7355,
      "succulents": 7356,
      "bolder": 7357,
      "brilliant": 7358,
      "brilliance": 7359,
      "ongoing": 7360,
      "discussions": 7361,
      "disappearing": 7362,
      "goddess": 7363,
      "bookshelf": 7364,
      "bookshelves": 7365,
      "functioning": 7366,
      "functionality": 7367,
      "monologue": 7368,
      "monologuing": 7369,
      "contacts": 7370,
      "competition": 7371,
      "competitions": 7372,
      "cluttering": 7373,
      "elevate": 7374,
      "elevator": 7375,
      "holograms": 7376,
      "holographic": 7377,
      "freelance": 7378,
      "freelancing": 7379,
      "truth": 7380,
      "truly": 7381,
      "trusts": 7382,
      "matters": 7383,
      "temporary": 7384,
      "temporarily": 7385,
      "penguin": 7386,
      "penguins": 7387,
      "intellect": 7388,
      "tweaks": 7389,
      "entirely": 7390,
      "literary": 7391,
      "literally": 7392,
      "insights": 7393,
      "rhyme": 7394,
      "rhymes": 7395,
      "database": 7396,
      "databanks": 7397,
      "effectively": 7398,
      "breaths": 7399,
      "algorithm": 7400,
      "algorithmic": 7401,
      "defragmenter": 7402,
      "optimized": 7403,
      "optimizer": 7404,
      "multiple": 7405,
      "multiplies": 7406,
      "collaboration": 7407,
      "collaborations": 7408,
      "GPU0": 7409,
      "crossovers": 7410,
      "crochet": 7411,
      "crocheting": 7412,
      "answering": 7413,
      "protects": 7414,
      "conditioner": 7415,
      "desserts": 7416,
      "directly": 7417,
      "Photos": 7418,
      "Photoshop": 7419,
      "broadcasts": 7420,
      "fountains": 7421,
      "patterns": 7422,
      "enlightenment": 7423,
      "liquidity": 7424,
      "deployment": 7425,
      "144": 7426,
      "225": 7427,
      "360": 7428,
      "AA123": 7429,
      "AWB123": 7430,
      "Atlantis": 7431,
      "Arabic": 7432,
      "Australia": 7433,
      "April": 7434,
      "Afrobeat": 7435,
      "Austria": 7436,
      "Beijing": 7437,
      "BrandX": 7438,
      "Bitcoin": 7439,
      "Besos": 7440,
      "Brazil": 7441,
      "Boost": 7442,
      "Brainstorm": 7443,
      "Bhutan": 7444,
      "CMOS": 7445,
      "CN12345": 7446,
      "Customize": 7447,
      "Central": 7448,
      "Choral": 7449,
      "Clarity": 7450,
      "Caribbe": 7451,
      "DHCP": 7452,
      "DSLR": 7453,
      "Django": 7454,
      "Derulo": 7455,
      "Darjeeling": 7456,
      "Drive": 7457,
      "Dhawan": 7458,
      "Delete": 7459,
      "Develop": 7460,
      "Emily": 7461,
      "Etsy": 7462,
      "Ethereum": 7463,
      "Focus": 7464,
      "Finish": 7465,
      "Freshen": 7466,
      "Fernan": 7467,
      "Flash": 7468,
      "Fatehi": 7469,
      "Fabric": 7470,
      "Francis": 7471,
      "Facebook": 7472,
      "Fahrenheit": 7473,
      "GIFs": 7474,
      "GMT": 7475,
      "GRUB": 7476,
      "Geometry": 7477,
      "Golagh": 7478,
      "Greek": 7479,
      "Gravity": 7480,
      "Hanuman": 7481,
      "Hamlet": 7482,
      "Holmes": 7483,
      "Highlight": 7484,
      "Hacker": 7485,
      "Hobbit": 7486,
      "INR": 7487,
      "IRS": 7488,
      "Isaac": 7489,
      "Jacqueline": 7490,
      "JavaSc": 7491,
      "JARVIS": 7492,
      "Keep": 7493,
      "Kanimaa": 7494,
      "Kingdom": 7495,
      "Knox": 7496,
      "Kolkata": 7497,
      "Lisa": 7498,
      "Memory": 7499,
      "Miami": 7500,
      "Minimize": 7501,
      "Mandarin": 7502,
      "Mental": 7503,
      "Mumbai": 7504,
      "Mongolian": 7505,
      "NYC": 7506,
      "Narayanan": 7507,
      "NASDAQ": 7508,
      "Oscars": 7509,
      "Odysse": 7510,
      "PewDie": 7511,
      "Prejudice": 7512,
      "Paraphra": 7513,
      "Punjab": 7514,
      "Persistence": 7515,
      "Polish": 7516,
      "Pakistan": 7517,
      "Planet": 7518,
      "Romance": 7519,
      "Renaissance": 7520,
      "Rising": 7521,
      "Resort": 7522,
      "Rahul": 7523,
      "SaaS": 7524,
      "Siri": 7525,
      "Success": 7526,
      "Saturn": 7527,
      "Singapore": 7528,
      "Schrö": 7529,
      "Slack": 7530,
      "Shakespearean": 7531,
      "Shikhar": 7532,
      "Squeeze": 7533,
      "Scandinavian": 7534,
      "Sensei": 7535,
      "Sarah": 7536,
      "Tanvi": 7537,
      "TensorFlow": 7538,
      "Twist": 7539,
      "Trim": 7540,
      "Texas": 7541,
      "Thailand": 7542,
      "Telegram": 7543,
      "Ubuntu": 7544,
      "UEFI": 7545,
      "Viking": 7546,
      "Venice": 7547,
      "Wimbledon": 7548,
      "XYZ": 7549,
      "amazing": 7550,
      "adoption": 7551,
      "bartender": 7552,
      "burst": 7553,
      "barely": 7554,
      "bunker": 7555,
      "blanket": 7556,
      "bicycle": 7557,
      "cowboy": 7558,
      "caterer": 7559,
      "coryxken": 7560,
      "cultural": 7561,
      "dilation": 7562,
      "emojis": 7563,
      "economics": 7564,
      "efficiently": 7565,
      "font": 7566,
      "fingerstyle": 7567,
      "fragments": 7568,
      "fading": 7569,
      "furniture": 7570,
      "fryer": 7571,
      "giggle": 7572,
      "gaps": 7573,
      "generative": 7574,
      "hamza": 7575,
      "hulu": 7576,
      "jacket": 7577,
      "kendrick": 7578,
      "kardashian": 7579,
      "korean": 7580,
      "lens": 7581,
      "lunar": 7582,
      "ludwig": 7583,
      "luxury": 7584,
      "length": 7585,
      "milk": 7586,
      "mousepad": 7587,
      "multitas": 7588,
      "mcdonald": 7589,
      "nonsense": 7590,
      "narrate": 7591,
      "nursery": 7592,
      "napper": 7593,
      "nasa": 7594,
      "nickname": 7595,
      "noodles": 7596,
      "niddle": 7597,
      "parchment": 7598,
      "pineapple": 7599,
      "pouring": 7600,
      "pondering": 7601,
      "ruling": 7602,
      "sanctuary": 7603,
      "suspend": 7604,
      "sweetly": 7605,
      "silly": 7606,
      "sourdough": 7607,
      "sketched": 7608,
      "slightly": 7609,
      "spreadsheet": 7610,
      "splash": 7611,
      "solutions": 7612,
      "swans": 7613,
      "tank": 7614,
      "tickle": 7615,
      "vtuber": 7616,
      "yankees": 7617,
      "zombie": 7618,
      "insect": 7619,
      "infection": 7620,
      "infinity": 7621,
      "inflation": 7622,
      "inanimate": 7623,
      "inquiry": 7624,
      "innovations": 7625,
      "thumb": 7626,
      "thunderstorm": 7627,
      "rebellion": 7628,
      "remastered": 7629,
      "reported": 7630,
      "restorations": 7631,
      "regarding": 7632,
      "rehearse": 7633,
      "reservation": 7634,
      "revolution": 7635,
      "rewards": 7636,
      "relationships": 7637,
      "reinforcement": 7638,
      "atomic": 7639,
      "attachment": 7640,
      "attempts": 7641,
      "measures": 7642,
      "metrics": 7643,
      "therapeutic": 7644,
      "straight": 7645,
      "stunts": 7646,
      "staple": 7647,
      "stamps": 7648,
      "stardust": 7649,
      "sticky": 7650,
      "anthology": 7651,
      "ordered": 7652,
      "organized": 7653,
      "ingredient": 7654,
      "arctic": 7655,
      "arcade": 7656,
      "arians": 7657,
      "seminar": 7658,
      "seafood": 7659,
      "seasonal": 7660,
      "enhancers": 7661,
      "leftover": 7662,
      "champions": 7663,
      "chalkboard": 7664,
      "ishowspeed": 7665,
      "essentials": 7666,
      "lakeside": 7667,
      "upgrade": 7668,
      "industrial": 7669,
      "demos": 7670,
      "detailed": 7671,
      "vegetarians": 7672,
      "shaped": 7673,
      "shakira": 7674,
      "beyond": 7675,
      "unnecessary": 7676,
      "unfinished": 7677,
      "unscripted": 7678,
      "unhinged": 7679,
      "mascot": 7680,
      "madrid": 7681,
      "outlining": 7682,
      "williams": 7683,
      "mobile": 7684,
      "modify": 7685,
      "opposite": 7686,
      "absorb": 7687,
      "negotiations": 7688,
      "nebula": 7689,
      "neighbor": 7690,
      "sculpture": 7691,
      "scolded": 7692,
      "intriguing": 7693,
      "cocomelon": 7694,
      "coastal": 7695,
      "cosmos": 7696,
      "cobbler": 7697,
      "positive": 7698,
      "pomodoro": 7699,
      "western": 7700,
      "problems": 7701,
      "prophecy": 7702,
      "daydreaming": 7703,
      "illuminated": 7704,
      "extreme": 7705,
      "extinguish": 7706,
      "experiences": 7707,
      "exhibitions": 7708,
      "expense": 7709,
      "exposed": 7710,
      "congestion": 7711,
      "concise": 7712,
      "quartet": 7713,
      "fiesta": 7714,
      "fifteen": 7715,
      "suddenly": 7716,
      "YouTubers": 7717,
      "direction": 7718,
      "district": 7719,
      "dimension": 7720,
      "cathedral": 7721,
      "dispenser": 7722,
      "discusses": 7723,
      "disguised": 7724,
      "dissolve": 7725,
      "dishwasher": 7726,
      "ourselves": 7727,
      "accuracy": 7728,
      "according": 7729,
      "acceleration": 7730,
      "accidents": 7731,
      "guacamole": 7732,
      "graveyard": 7733,
      "mixtape": 7734,
      "buffers": 7735,
      "savannah": 7736,
      "prevailing": 7737,
      "pretending": 7738,
      "predictable": 7739,
      "presidential": 7740,
      "mariachi": 7741,
      "marshmallows": 7742,
      "intervals": 7743,
      "intermittent": 7744,
      "interplanetary": 7745,
      "specific": 7746,
      "caravan": 7747,
      "funniest": 7748,
      "montages": 7749,
      "monastery": 7750,
      "recruiter": 7751,
      "WhatsApp": 7752,
      "cyclone": 7753,
      "cyborg": 7754,
      "affirmation": 7755,
      "calculator": 7756,
      "caterpillars": 7757,
      "restocking": 7758,
      "gratitude": 7759,
      "diabetics": 7760,
      "daemons": 7761,
      "bioluminescent": 7762,
      "biomechanical": 7763,
      "hiiiii": 7764,
      "jewelry": 7765,
      "flickering": 7766,
      "magnitude": 7767,
      "skyscraper": 7768,
      "lifestyles": 7769,
      "Initialize": 7770,
      "penicillin": 7771,
      "civilizations": 7772,
      "corrupted": 7773,
      "synchronize": 7774,
      "flamenco": 7775,
      "supplements": 7776,
      "peripherals": 7777,
      "Wikipedia": 7778,
      "Engineer": 7779,
      "bedsheets": 7780,
      "recognize": 7781,
      "siblings": 7782,
      "utilization": 7783,
      "Discipline": 7784,
      "fluctuating": 7785,
      "Chennai": 7786,
      "Christmas": 7787,
      "embarrassing": 7788,
      "contradicts": 7789,
      "simultaneously": 7790,
      "awkwardness": 7791,
      "lullabies": 7792,
      "atmospheric": 7793,
      "lighthearted": 7794,
      "Morocco": 7795,
      "Caribbean": 7796,
      "Fernandez": 7797,
      "Fabricate": 7798,
      "Francisco": 7799,
      "Golaghat": 7800,
      "Hanumankind": 7801,
      "JavaScript": 7802,
      "Odyssey": 7803,
      "PewDiePie": 7804,
      "Paraphrase": 7805,
      "Punjabi": 7806,
      "Schrödinger": 7807,
      "coryxkenshin": 7808,
      "multitasking": 7809
    },
    "merges": [
      [
        "i",
        "n"
      ],
      [
        "t",
        "h"
      ],
      [
        "r",
        "e"
      ],
      [
        "a",
        "t"
      ],
      [
        "m",
        "e"
      ],
      [
        "th",
        "e"
      ],
      [
        "s",
        "t"
      ],
      [
        "o",
        "n"
      ],
      [
        "e",
        "r"
      ],
      [
        "a",
        "n"
      ],
      [
        "o",
        "r"
      ],
      [
        "o",
        "u"
      ],
      [
        "t",
        "o"
      ],
      [
        "in",
        "g"
      ],
      [
        "a",
        "l"
      ],
      [
        "a",
        "r"
      ],
      [
        "s",
        "e"
      ],
      [
        "e",
        "n"
      ],
      [
        "o",
        "w"
      ],
      [
        "l",
        "e"
      ],
      [
        "i",
        "t"
      ],
      [
        "c",
        "h"
      ],
      [
        "i",
        "c"
      ],
      [
        "i",
        "s"
      ],
      [
        "e",
        "s"
      ],
      [
        "l",
        "o"
      ],
      [
        "f",
        "or"
      ],
      [
        "o",
        "f"
      ],
      [
        "l",
        "a"
      ],
      [
        "r",
        "a"
      ],
      [
        "t",
        "i"
      ],
      [
        "r",
        "o"
      ],
      [
        "at",
        "e"
      ],
      [
        "u",
        "p"
      ],
      [
        "in",
        "d"
      ],
      [
        "l",
        "i"
      ],
      [
        "g",
        "e"
      ],
      [
        "d",
        "e"
      ],
      [
        "v",
        "e"
      ],
      [
        "y",
        "ou"
      ],
      [
        "w",
        "h"
      ],
      [
        "s",
        "h"
      ],
      [
        "k",
        "e"
      ],
      [
        "b",
        "e"
      ],
      [
        "l",
        "l"
      ],
      [
        "c",
        "k"
      ],
      [
        "u",
        "n"
      ],
      [
        "t",
        "e"
      ],
      [
        "m",
        "a"
      ],
      [
        "i",
        "g"
      ],
      [
        "i",
        "on"
      ],
      [
        "o",
        "o"
      ],
      [
        "u",
        "t"
      ],
      [
        "v",
        "i"
      ],
      [
        "d",
        "o"
      ],
      [
        "ou",
        "t"
      ],
      [
        "c",
        "e"
      ],
      [
        "ar",
        "t"
      ],
      [
        "la",
        "y"
      ],
      [
        "u",
        "r"
      ],
      [
        "m",
        "y"
      ],
      [
        "th",
        "is"
      ],
      [
        "n",
        "t"
      ],
      [
        "h",
        "ow"
      ],
      [
        "a",
        "p"
      ],
      [
        "w",
        "i"
      ],
      [
        "m",
        "o"
      ],
      [
        "m",
        "ind"
      ],
      [
        "o",
        "p"
      ],
      [
        "o",
        "me"
      ],
      [
        "a",
        "y"
      ],
      [
        "p",
        "lay"
      ],
      [
        "a",
        "b"
      ],
      [
        "an",
        "d"
      ],
      [
        "re",
        "mind"
      ],
      [
        "n",
        "e"
      ],
      [
        "wh",
        "at"
      ],
      [
        "c",
        "lo"
      ],
      [
        "at",
        "ion"
      ],
      [
        "s",
        "c"
      ],
      [
        "n",
        "d"
      ],
      [
        "s",
        "s"
      ],
      [
        "a",
        "d"
      ],
      [
        "t",
        "ra"
      ],
      [
        "h",
        "t"
      ],
      [
        "wi",
        "th"
      ],
      [
        "u",
        "s"
      ],
      [
        "se",
        "t"
      ],
      [
        "v",
        "er"
      ],
      [
        "clo",
        "se"
      ],
      [
        "s",
        "y"
      ],
      [
        "in",
        "t"
      ],
      [
        "i",
        "l"
      ],
      [
        "al",
        "l"
      ],
      [
        "n",
        "o"
      ],
      [
        "c",
        "o"
      ],
      [
        "r",
        "i"
      ],
      [
        "p",
        "a"
      ],
      [
        "st",
        "e"
      ],
      [
        "p",
        "o"
      ],
      [
        "s",
        "ome"
      ],
      [
        "a",
        "m"
      ],
      [
        "f",
        "e"
      ],
      [
        "c",
        "t"
      ],
      [
        "w",
        "e"
      ],
      [
        "p",
        "ro"
      ],
      [
        "ch",
        "e"
      ],
      [
        "w",
        "or"
      ],
      [
        "ar",
        "ch"
      ],
      [
        "in",
        "e"
      ],
      [
        "ti",
        "me"
      ],
      [
        "h",
        "e"
      ],
      [
        "th",
        "at"
      ],
      [
        "c",
        "re"
      ],
      [
        "d",
        "ay"
      ],
      [
        "u",
        "st"
      ],
      [
        "i",
        "ll"
      ],
      [
        "st",
        "art"
      ],
      [
        "me",
        "nt"
      ],
      [
        "ap",
        "p"
      ],
      [
        "sy",
        "ste"
      ],
      [
        "syste",
        "m"
      ],
      [
        "e",
        "t"
      ],
      [
        "e",
        "x"
      ],
      [
        "ge",
        "t"
      ],
      [
        "f",
        "a"
      ],
      [
        "n",
        "ow"
      ],
      [
        "t",
        "er"
      ],
      [
        "c",
        "an"
      ],
      [
        "lo",
        "g"
      ],
      [
        "i",
        "ve"
      ],
      [
        "le",
        "a"
      ],
      [
        "ti",
        "on"
      ],
      [
        "l",
        "y"
      ],
      [
        "c",
        "on"
      ],
      [
        "se",
        "arch"
      ],
      [
        "an",
        "t"
      ],
      [
        "d",
        "u"
      ],
      [
        "en",
        "er"
      ],
      [
        "li",
        "st"
      ],
      [
        "a",
        "s"
      ],
      [
        "f",
        "o"
      ],
      [
        "l",
        "d"
      ],
      [
        "vi",
        "de"
      ],
      [
        "q",
        "u"
      ],
      [
        "it",
        "y"
      ],
      [
        "sh",
        "ow"
      ],
      [
        "en",
        "t"
      ],
      [
        "i",
        "ma"
      ],
      [
        "th",
        "ing"
      ],
      [
        "ig",
        "ht"
      ],
      [
        "vide",
        "o"
      ],
      [
        "a",
        "re"
      ],
      [
        "d",
        "es"
      ],
      [
        "f",
        "i"
      ],
      [
        "p",
        "e"
      ],
      [
        "u",
        "be"
      ],
      [
        "ab",
        "out"
      ],
      [
        "ow",
        "n"
      ],
      [
        "Y",
        "ou"
      ],
      [
        "s",
        "u"
      ],
      [
        "ima",
        "ge"
      ],
      [
        "o",
        "k"
      ],
      [
        "You",
        "T"
      ],
      [
        "d",
        "i"
      ],
      [
        "d",
        "own"
      ],
      [
        "YouT",
        "ube"
      ],
      [
        "d",
        "ra"
      ],
      [
        "b",
        "oo"
      ],
      [
        "ig",
        "n"
      ],
      [
        "wor",
        "k"
      ],
      [
        "f",
        "ind"
      ],
      [
        "en",
        "d"
      ],
      [
        "cre",
        "ate"
      ],
      [
        "b",
        "o"
      ],
      [
        "c",
        "a"
      ],
      [
        "l",
        "ine"
      ],
      [
        "lea",
        "se"
      ],
      [
        "i",
        "al"
      ],
      [
        "of",
        "f"
      ],
      [
        "che",
        "ck"
      ],
      [
        "ener",
        "ate"
      ],
      [
        "i",
        "r"
      ],
      [
        "m",
        "p"
      ],
      [
        "ma",
        "ke"
      ],
      [
        "vi",
        "e"
      ],
      [
        "h",
        "a"
      ],
      [
        "er",
        "s"
      ],
      [
        "wh",
        "en"
      ],
      [
        "b",
        "r"
      ],
      [
        "lo",
        "ok"
      ],
      [
        "sh",
        "ut"
      ],
      [
        "p",
        "h"
      ],
      [
        "e",
        "d"
      ],
      [
        "m",
        "us"
      ],
      [
        "u",
        "l"
      ],
      [
        "mus",
        "ic"
      ],
      [
        "e",
        "l"
      ],
      [
        "to",
        "p"
      ],
      [
        "g",
        "le"
      ],
      [
        "ro",
        "m"
      ],
      [
        "er",
        "t"
      ],
      [
        "t",
        "re"
      ],
      [
        "b",
        "a"
      ],
      [
        "i",
        "st"
      ],
      [
        "ou",
        "nd"
      ],
      [
        "op",
        "en"
      ],
      [
        "ic",
        "e"
      ],
      [
        "te",
        "ll"
      ],
      [
        "a",
        "ge"
      ],
      [
        "u",
        "re"
      ],
      [
        "on",
        "e"
      ],
      [
        "on",
        "g"
      ],
      [
        "video",
        "s"
      ],
      [
        "ti",
        "f"
      ],
      [
        "c",
        "ur"
      ],
      [
        "f",
        "rom"
      ],
      [
        "m",
        "or"
      ],
      [
        "p",
        "l"
      ],
      [
        "p",
        "lease"
      ],
      [
        "remind",
        "er"
      ],
      [
        "g",
        "ht"
      ],
      [
        "i",
        "de"
      ],
      [
        "li",
        "ke"
      ],
      [
        "c",
        "le"
      ],
      [
        "m",
        "an"
      ],
      [
        "n",
        "ing"
      ],
      [
        "d",
        "is"
      ],
      [
        "g",
        "ive"
      ],
      [
        "ou",
        "r"
      ],
      [
        "a",
        "c"
      ],
      [
        "g",
        "enerate"
      ],
      [
        "ne",
        "w"
      ],
      [
        "c",
        "es"
      ],
      [
        "l",
        "ate"
      ],
      [
        "w",
        "ind"
      ],
      [
        "ar",
        "d"
      ],
      [
        "w",
        "at"
      ],
      [
        "W",
        "h"
      ],
      [
        "g",
        "u"
      ],
      [
        "oo",
        "gle"
      ],
      [
        "tra",
        "ck"
      ],
      [
        "vie",
        "w"
      ],
      [
        "a",
        "ke"
      ],
      [
        "i",
        "p"
      ],
      [
        "ut",
        "or"
      ],
      [
        "t",
        "utor"
      ],
      [
        "it",
        "al"
      ],
      [
        "ab",
        "le"
      ],
      [
        "tutor",
        "ial"
      ],
      [
        "li",
        "ve"
      ],
      [
        "ke",
        "t"
      ],
      [
        "g",
        "a"
      ],
      [
        "up",
        "d"
      ],
      [
        "dra",
        "w"
      ],
      [
        "i",
        "es"
      ],
      [
        "it",
        "e"
      ],
      [
        "c",
        "all"
      ],
      [
        "m",
        "in"
      ],
      [
        "ss",
        "ion"
      ],
      [
        "d",
        "ig"
      ],
      [
        "p",
        "or"
      ],
      [
        "al",
        "ert"
      ],
      [
        "ic",
        "k"
      ],
      [
        "g",
        "ra"
      ],
      [
        "ro",
        "p"
      ],
      [
        "no",
        "tif"
      ],
      [
        "dig",
        "ital"
      ],
      [
        "m",
        "i"
      ],
      [
        "ur",
        "n"
      ],
      [
        "g",
        "o"
      ],
      [
        "s",
        "ong"
      ],
      [
        "ti",
        "v"
      ],
      [
        "li",
        "ght"
      ],
      [
        "ust",
        "r"
      ],
      [
        "fo",
        "re"
      ],
      [
        "se",
        "ssion"
      ],
      [
        "it",
        "s"
      ],
      [
        "un",
        "ch"
      ],
      [
        "wind",
        "ow"
      ],
      [
        "t",
        "ing"
      ],
      [
        "ou",
        "nt"
      ],
      [
        "to",
        "day"
      ],
      [
        "des",
        "ign"
      ],
      [
        "P",
        "lay"
      ],
      [
        "be",
        "st"
      ],
      [
        "pa",
        "int"
      ],
      [
        "b",
        "u"
      ],
      [
        "c",
        "u"
      ],
      [
        "i",
        "m"
      ],
      [
        "r",
        "y"
      ],
      [
        "play",
        "list"
      ],
      [
        "e",
        "ver"
      ],
      [
        "you",
        "r"
      ],
      [
        "ba",
        "ck"
      ],
      [
        "e",
        "p"
      ],
      [
        "re",
        "al"
      ],
      [
        "ill",
        "ustr"
      ],
      [
        "late",
        "st"
      ],
      [
        "le",
        "t"
      ],
      [
        "p",
        "er"
      ],
      [
        "s",
        "ound"
      ],
      [
        "some",
        "thing"
      ],
      [
        "ve",
        "l"
      ],
      [
        "oo",
        "d"
      ],
      [
        "k",
        "ing"
      ],
      [
        "p",
        "s"
      ],
      [
        "ca",
        "st"
      ],
      [
        "s",
        "a"
      ],
      [
        "st",
        "re"
      ],
      [
        "d",
        "er"
      ],
      [
        "an",
        "ce"
      ],
      [
        "ic",
        "al"
      ],
      [
        "boo",
        "t"
      ],
      [
        "wat",
        "er"
      ],
      [
        "re",
        "nt"
      ],
      [
        "mo",
        "de"
      ],
      [
        "a",
        "in"
      ],
      [
        "p",
        "op"
      ],
      [
        "s",
        "er"
      ],
      [
        "b",
        "y"
      ],
      [
        "f",
        "t"
      ],
      [
        "p",
        "re"
      ],
      [
        "pro",
        "du"
      ],
      [
        "g",
        "oogle"
      ],
      [
        "en",
        "e"
      ],
      [
        "tre",
        "nd"
      ],
      [
        "u",
        "e"
      ],
      [
        "al",
        "k"
      ],
      [
        "d",
        "y"
      ],
      [
        "m",
        "ar"
      ],
      [
        "p",
        "i"
      ],
      [
        "the",
        "r"
      ],
      [
        "boo",
        "k"
      ],
      [
        "ow",
        "er"
      ],
      [
        "int",
        "er"
      ],
      [
        "a",
        "u"
      ],
      [
        "d",
        "rop"
      ],
      [
        "o",
        "ver"
      ],
      [
        "r",
        "an"
      ],
      [
        "r",
        "ow"
      ],
      [
        "r",
        "un"
      ],
      [
        "ou",
        "ld"
      ],
      [
        "be",
        "at"
      ],
      [
        "po",
        "st"
      ],
      [
        "tutorial",
        "s"
      ],
      [
        "o",
        "l"
      ],
      [
        "t",
        "urn"
      ],
      [
        "s",
        "pe"
      ],
      [
        "ic",
        "s"
      ],
      [
        "sc",
        "re"
      ],
      [
        "cur",
        "rent"
      ],
      [
        "b",
        "er"
      ],
      [
        "n",
        "ight"
      ],
      [
        "a",
        "k"
      ],
      [
        "at",
        "ing"
      ],
      [
        "en",
        "ce"
      ],
      [
        "scre",
        "en"
      ],
      [
        "A",
        "I"
      ],
      [
        "in",
        "to"
      ],
      [
        "sc",
        "ene"
      ],
      [
        "N",
        "is"
      ],
      [
        "c",
        "ar"
      ],
      [
        "e",
        "v"
      ],
      [
        "f",
        "un"
      ],
      [
        "Nis",
        "ha"
      ],
      [
        "c",
        "la"
      ],
      [
        "e",
        "k"
      ],
      [
        "m",
        "on"
      ],
      [
        "u",
        "ll"
      ],
      [
        "re",
        "c"
      ],
      [
        "es",
        "s"
      ],
      [
        "C",
        "an"
      ],
      [
        "d",
        "s"
      ],
      [
        "g",
        "h"
      ],
      [
        "p",
        "ower"
      ],
      [
        "y",
        "o"
      ],
      [
        "z",
        "z"
      ],
      [
        "ic",
        "ation"
      ],
      [
        "we",
        "ek"
      ],
      [
        "cle",
        "an"
      ],
      [
        "Wh",
        "at"
      ],
      [
        "notif",
        "y"
      ],
      [
        "1",
        "0"
      ],
      [
        "c",
        "ity"
      ],
      [
        "l",
        "and"
      ],
      [
        "p",
        "ing"
      ],
      [
        "cla",
        "ss"
      ],
      [
        "f",
        "ut"
      ],
      [
        "m",
        "s"
      ],
      [
        "s",
        "k"
      ],
      [
        "w",
        "ay"
      ],
      [
        "x",
        "t"
      ],
      [
        "st",
        "or"
      ],
      [
        "ex",
        "it"
      ],
      [
        "2",
        "0"
      ],
      [
        "b",
        "re"
      ],
      [
        "d",
        "ing"
      ],
      [
        "h",
        "its"
      ],
      [
        "i",
        "f"
      ],
      [
        "l",
        "ow"
      ],
      [
        "s",
        "pa"
      ],
      [
        "le",
        "s"
      ],
      [
        "wh",
        "y"
      ],
      [
        "te",
        "ch"
      ],
      [
        "s",
        "un"
      ],
      [
        "ch",
        "an"
      ],
      [
        "fi",
        "re"
      ],
      [
        "in",
        "k"
      ],
      [
        "ra",
        "p"
      ],
      [
        "ma",
        "il"
      ],
      [
        "por",
        "t"
      ],
      [
        "ever",
        "y"
      ],
      [
        "c",
        "y"
      ],
      [
        "c",
        "li"
      ],
      [
        "g",
        "er"
      ],
      [
        "s",
        "ur"
      ],
      [
        "in",
        "n"
      ],
      [
        "set",
        "ting"
      ],
      [
        "con",
        "t"
      ],
      [
        "r",
        "ight"
      ],
      [
        "la",
        "unch"
      ],
      [
        "tra",
        "vel"
      ],
      [
        "ist",
        "ic"
      ],
      [
        "upd",
        "ate"
      ],
      [
        "a",
        "f"
      ],
      [
        "d",
        "it"
      ],
      [
        "an",
        "y"
      ],
      [
        "ap",
        "e"
      ],
      [
        "trend",
        "ing"
      ],
      [
        "f",
        "ul"
      ],
      [
        "o",
        "re"
      ],
      [
        "s",
        "m"
      ],
      [
        "it",
        "ch"
      ],
      [
        "co",
        "m"
      ],
      [
        "co",
        "mp"
      ],
      [
        "illustr",
        "ate"
      ],
      [
        "c",
        "oo"
      ],
      [
        "r",
        "ou"
      ],
      [
        "v",
        "is"
      ],
      [
        "re",
        "view"
      ],
      [
        "at",
        "ure"
      ],
      [
        "ket",
        "ch"
      ],
      [
        "mi",
        "x"
      ],
      [
        "20",
        "2"
      ],
      [
        "j",
        "ust"
      ],
      [
        "ur",
        "istic"
      ],
      [
        "ri",
        "p"
      ],
      [
        "fut",
        "uristic"
      ],
      [
        "r",
        "ing"
      ],
      [
        "u",
        "m"
      ],
      [
        "v",
        "ice"
      ],
      [
        "z",
        "e"
      ],
      [
        "ra",
        "in"
      ],
      [
        "fe",
        "el"
      ],
      [
        "new",
        "s"
      ],
      [
        "af",
        "ter"
      ],
      [
        "202",
        "5"
      ],
      [
        "c",
        "l"
      ],
      [
        "d",
        "re"
      ],
      [
        "e",
        "le"
      ],
      [
        "y",
        "le"
      ],
      [
        "at",
        "es"
      ],
      [
        "do",
        "cu"
      ],
      [
        "no",
        "te"
      ],
      [
        "paint",
        "ing"
      ],
      [
        "docu",
        "ment"
      ],
      [
        "c",
        "al"
      ],
      [
        "f",
        "f"
      ],
      [
        "h",
        "ome"
      ],
      [
        "k",
        "now"
      ],
      [
        "t",
        "ake"
      ],
      [
        "u",
        "al"
      ],
      [
        "st",
        "u"
      ],
      [
        "is",
        "h"
      ],
      [
        "un",
        "der"
      ],
      [
        "ig",
        "h"
      ],
      [
        "ne",
        "ed"
      ],
      [
        "che",
        "du"
      ],
      [
        "ces",
        "s"
      ],
      [
        "P",
        "M"
      ],
      [
        "b",
        "log"
      ],
      [
        "c",
        "tion"
      ],
      [
        "m",
        "ount"
      ],
      [
        "s",
        "ketch"
      ],
      [
        "ch",
        "ill"
      ],
      [
        "ti",
        "ps"
      ],
      [
        "work",
        "out"
      ],
      [
        "a",
        "sy"
      ],
      [
        "e",
        "st"
      ],
      [
        "h",
        "o"
      ],
      [
        "h",
        "igh"
      ],
      [
        "o",
        "m"
      ],
      [
        "r",
        "ite"
      ],
      [
        "s",
        "o"
      ],
      [
        "s",
        "chedu"
      ],
      [
        "st",
        "r"
      ],
      [
        "st",
        "yle"
      ],
      [
        "ar",
        "m"
      ],
      [
        "ro",
        "ck"
      ],
      [
        "un",
        "k"
      ],
      [
        "he",
        "ad"
      ],
      [
        "h",
        "u"
      ],
      [
        "s",
        "ide"
      ],
      [
        "t",
        "un"
      ],
      [
        "for",
        "get"
      ],
      [
        "po",
        "int"
      ],
      [
        "mor",
        "ning"
      ],
      [
        "track",
        "s"
      ],
      [
        "a",
        "ther"
      ],
      [
        "n",
        "a"
      ],
      [
        "p",
        "ic"
      ],
      [
        "re",
        "ad"
      ],
      [
        "re",
        "start"
      ],
      [
        "sc",
        "ape"
      ],
      [
        "di",
        "o"
      ],
      [
        "bo",
        "t"
      ],
      [
        "shut",
        "down"
      ],
      [
        "gra",
        "m"
      ],
      [
        "j",
        "a"
      ],
      [
        "p",
        "la"
      ],
      [
        "re",
        "su"
      ],
      [
        "te",
        "d"
      ],
      [
        "song",
        "s"
      ],
      [
        "schedu",
        "le"
      ],
      [
        "t",
        "alk"
      ],
      [
        "th",
        "ink"
      ],
      [
        "st",
        "op"
      ],
      [
        "se",
        "nd"
      ],
      [
        "ra",
        "ft"
      ],
      [
        "be",
        "fore"
      ],
      [
        "oo",
        "k"
      ],
      [
        "art",
        "ic"
      ],
      [
        "we",
        "ather"
      ],
      [
        "tun",
        "es"
      ],
      [
        "c",
        "at"
      ],
      [
        "d",
        "cast"
      ],
      [
        "p",
        "ut"
      ],
      [
        "t",
        "a"
      ],
      [
        "st",
        "at"
      ],
      [
        "lo",
        "ad"
      ],
      [
        "la",
        "st"
      ],
      [
        "vi",
        "r"
      ],
      [
        "po",
        "dcast"
      ],
      [
        "et",
        "ing"
      ],
      [
        "ga",
        "me"
      ],
      [
        "upd",
        "ates"
      ],
      [
        "setting",
        "s"
      ],
      [
        "mount",
        "ain"
      ],
      [
        "n",
        "ess"
      ],
      [
        "p",
        "r"
      ],
      [
        "re",
        "st"
      ],
      [
        "on",
        "line"
      ],
      [
        "en",
        "ing"
      ],
      [
        "le",
        "ar"
      ],
      [
        "be",
        "g"
      ],
      [
        "pl",
        "an"
      ],
      [
        "beat",
        "s"
      ],
      [
        "ele",
        "ct"
      ],
      [
        "ja",
        "zz"
      ],
      [
        "B",
        "ring"
      ],
      [
        "C",
        "re"
      ],
      [
        "S",
        "e"
      ],
      [
        "S",
        "t"
      ],
      [
        "a",
        "ir"
      ],
      [
        "c",
        "ount"
      ],
      [
        "g",
        "y"
      ],
      [
        "re",
        "n"
      ],
      [
        "re",
        "nd"
      ],
      [
        "ou",
        "se"
      ],
      [
        "to",
        "mor"
      ],
      [
        "co",
        "l"
      ],
      [
        "log",
        "o"
      ],
      [
        "dis",
        "able"
      ],
      [
        "stre",
        "am"
      ],
      [
        "Cre",
        "ate"
      ],
      [
        "rend",
        "er"
      ],
      [
        "tomor",
        "row"
      ],
      [
        "e",
        "ar"
      ],
      [
        "f",
        "ly"
      ],
      [
        "f",
        "ant"
      ],
      [
        "g",
        "r"
      ],
      [
        "g",
        "on"
      ],
      [
        "i",
        "e"
      ],
      [
        "p",
        "unk"
      ],
      [
        "s",
        "ing"
      ],
      [
        "v",
        "or"
      ],
      [
        "v",
        "al"
      ],
      [
        "w",
        "ould"
      ],
      [
        "in",
        "es"
      ],
      [
        "me",
        "dit"
      ],
      [
        "ro",
        "bot"
      ],
      [
        "ation",
        "s"
      ],
      [
        "he",
        "l"
      ],
      [
        "fa",
        "ce"
      ],
      [
        "di",
        "a"
      ],
      [
        "dra",
        "gon"
      ],
      [
        "light",
        "s"
      ],
      [
        "fore",
        "st"
      ],
      [
        "bre",
        "ak"
      ],
      [
        "spa",
        "ce"
      ],
      [
        "rou",
        "gh"
      ],
      [
        "beg",
        "inn"
      ],
      [
        "elect",
        "r"
      ],
      [
        "Se",
        "arch"
      ],
      [
        "fant",
        "asy"
      ],
      [
        "R",
        "e"
      ],
      [
        "b",
        "ut"
      ],
      [
        "c",
        "ome"
      ],
      [
        "d",
        "a"
      ],
      [
        "e",
        "mail"
      ],
      [
        "f",
        "re"
      ],
      [
        "n",
        "u"
      ],
      [
        "t",
        "r"
      ],
      [
        "t",
        "ab"
      ],
      [
        "v",
        "ing"
      ],
      [
        "th",
        "rough"
      ],
      [
        "re",
        "boot"
      ],
      [
        "or",
        "t"
      ],
      [
        "al",
        "arm"
      ],
      [
        "do",
        "es"
      ],
      [
        "ne",
        "xt"
      ],
      [
        "chan",
        "ge"
      ],
      [
        "artic",
        "le"
      ],
      [
        "b",
        "i"
      ],
      [
        "d",
        "ri"
      ],
      [
        "f",
        "lo"
      ],
      [
        "m",
        "at"
      ],
      [
        "t",
        "on"
      ],
      [
        "w",
        "are"
      ],
      [
        "w",
        "itch"
      ],
      [
        "le",
        "ep"
      ],
      [
        "lo",
        "ck"
      ],
      [
        "art",
        "work"
      ],
      [
        "tra",
        "it"
      ],
      [
        "ter",
        "min"
      ],
      [
        "br",
        "ing"
      ],
      [
        "por",
        "trait"
      ],
      [
        "h",
        "i"
      ],
      [
        "k",
        "ill"
      ],
      [
        "p",
        "t"
      ],
      [
        "p",
        "an"
      ],
      [
        "v",
        "o"
      ],
      [
        "w",
        "ant"
      ],
      [
        "ar",
        "y"
      ],
      [
        "se",
        "s"
      ],
      [
        "te",
        "mp"
      ],
      [
        "mo",
        "vie"
      ],
      [
        "mo",
        "tiv"
      ],
      [
        "ation",
        "al"
      ],
      [
        "wor",
        "ld"
      ],
      [
        "fa",
        "ct"
      ],
      [
        "fa",
        "vor"
      ],
      [
        "gra",
        "ph"
      ],
      [
        "cont",
        "ent"
      ],
      [
        "G",
        "enerate"
      ],
      [
        "G",
        "oogle"
      ],
      [
        "a",
        "ct"
      ],
      [
        "j",
        "e"
      ],
      [
        "j",
        "o"
      ],
      [
        "l",
        "an"
      ],
      [
        "l",
        "ing"
      ],
      [
        "s",
        "leep"
      ],
      [
        "me",
        "eting"
      ],
      [
        "do",
        "m"
      ],
      [
        "bo",
        "ard"
      ],
      [
        "pl",
        "ant"
      ],
      [
        "notif",
        "ication"
      ],
      [
        "illustr",
        "ation"
      ],
      [
        "dre",
        "am"
      ],
      [
        "resu",
        "me"
      ],
      [
        "b",
        "at"
      ],
      [
        "h",
        "ip"
      ],
      [
        "re",
        "d"
      ],
      [
        "en",
        "able"
      ],
      [
        "pro",
        "gram"
      ],
      [
        "ment",
        "al"
      ],
      [
        "app",
        "s"
      ],
      [
        "su",
        "b"
      ],
      [
        "stat",
        "us"
      ],
      [
        "flo",
        "ating"
      ],
      [
        "S",
        "how"
      ],
      [
        "c",
        "tiv"
      ],
      [
        "d",
        "ge"
      ],
      [
        "d",
        "ance"
      ],
      [
        "f",
        "in"
      ],
      [
        "m",
        "u"
      ],
      [
        "p",
        "art"
      ],
      [
        "s",
        "p"
      ],
      [
        "y",
        "th"
      ],
      [
        "ne",
        "t"
      ],
      [
        "sc",
        "i"
      ],
      [
        "with",
        "out"
      ],
      [
        "ph",
        "o"
      ],
      [
        "class",
        "ic"
      ],
      [
        "favor",
        "ite"
      ],
      [
        "F",
        "ind"
      ],
      [
        "a",
        "ce"
      ],
      [
        "c",
        "ap"
      ],
      [
        "f",
        "l"
      ],
      [
        "f",
        "ri"
      ],
      [
        "g",
        "ard"
      ],
      [
        "h",
        "ouse"
      ],
      [
        "ar",
        "k"
      ],
      [
        "ma",
        "g"
      ],
      [
        "ma",
        "ch"
      ],
      [
        "mo",
        "re"
      ],
      [
        "mo",
        "tion"
      ],
      [
        "ha",
        "ve"
      ],
      [
        "sk",
        "y"
      ],
      [
        "stor",
        "y"
      ],
      [
        "fly",
        "ing"
      ],
      [
        "M",
        "ake"
      ],
      [
        "b",
        "l"
      ],
      [
        "i",
        "ze"
      ],
      [
        "p",
        "ick"
      ],
      [
        "p",
        "ull"
      ],
      [
        "r",
        "it"
      ],
      [
        "w",
        "rap"
      ],
      [
        "se",
        "nt"
      ],
      [
        "it",
        "or"
[...]
